const unsigned char trained_tflite[] = {
  0x18, 0x00, 0x00, 0x00, 0x54, 0x46, 0x4c, 0x33, 0x00, 0x00, 0x0e, 0x00,
  0x18, 0x00, 0x04, 0x00, 0x08, 0x00, 0x0c, 0x00, 0x10, 0x00, 0x14, 0x00,
  0x0e, 0x00, 0x00, 0x00, 0x03, 0x00, 0x00, 0x00, 0xf4, 0x13, 0x00, 0x00,
  0x0c, 0x00, 0x00, 0x00, 0x10, 0x00, 0x00, 0x00, 0x20, 0x00, 0x00, 0x00,
  0x01, 0x00, 0x00, 0x00, 0xa8, 0x0f, 0x00, 0x00, 0x0f, 0x00, 0x00, 0x00,
  0x54, 0x4f, 0x43, 0x4f, 0x20, 0x43, 0x6f, 0x6e, 0x76, 0x65, 0x72, 0x74,
  0x65, 0x64, 0x2e, 0x00, 0x0c, 0x00, 0x00, 0x00, 0x7c, 0x0f, 0x00, 0x00,
  0x44, 0x0f, 0x00, 0x00, 0x14, 0x0c, 0x00, 0x00, 0xb4, 0x01, 0x00, 0x00,
  0xac, 0x01, 0x00, 0x00, 0x84, 0x01, 0x00, 0x00, 0x7c, 0x01, 0x00, 0x00,
  0x1c, 0x01, 0x00, 0x00, 0x14, 0x01, 0x00, 0x00, 0x14, 0x00, 0x00, 0x00,
  0x0c, 0x00, 0x00, 0x00, 0x04, 0x00, 0x00, 0x00, 0x00, 0xed, 0xff, 0xff,
  0x04, 0xed, 0xff, 0xff, 0x4a, 0xed, 0xff, 0xff, 0x04, 0x00, 0x00, 0x00,
  0xf0, 0x00, 0x00, 0x00, 0x5c, 0x96, 0x23, 0x3e, 0xdd, 0xbd, 0xf4, 0xbe,
  0x73, 0x3c, 0xff, 0xbe, 0x98, 0x64, 0x36, 0xbf, 0xd8, 0x47, 0x15, 0x3f,
  0x4a, 0x7b, 0x1f, 0x3e, 0x74, 0xca, 0x93, 0xbf, 0xd0, 0x0e, 0x56, 0xbf,
  0xb8, 0x10, 0x9f, 0x3d, 0x1b, 0xfb, 0x43, 0x3e, 0xb1, 0x29, 0x02, 0xbf,
  0xb9, 0x93, 0xd7, 0xbe, 0x5d, 0x93, 0x46, 0x3f, 0x44, 0x6f, 0x30, 0x3f,
  0x35, 0xb5, 0x57, 0xbf, 0x60, 0x68, 0x1f, 0xbe, 0x32, 0xb1, 0x35, 0xbf,
  0x72, 0xfb, 0x05, 0x3f, 0xe6, 0x67, 0x19, 0xbf, 0x90, 0x15, 0xca, 0xbe,
  0xc5, 0x72, 0xe0, 0xbe, 0xa3, 0xe7, 0x33, 0x3e, 0x85, 0x52, 0x05, 0xbf,
  0x3e, 0x82, 0xee, 0x3e, 0xe3, 0xbe, 0xe1, 0x3e, 0x2c, 0x2b, 0x92, 0xbf,
  0x08, 0xb3, 0x90, 0x3f, 0xaa, 0xb1, 0x61, 0x3f, 0x33, 0x79, 0x4e, 0xbe,
  0xea, 0x3a, 0x98, 0xbf, 0x45, 0xf1, 0xa7, 0x3e, 0xa8, 0xb5, 0x16, 0x3f,
  0xf7, 0x47, 0x74, 0xbf, 0x94, 0x45, 0xef, 0x3d, 0xcb, 0xdc, 0x4e, 0xbf,
  0x30, 0x5f, 0x09, 0xbe, 0xe5, 0x5f, 0xac, 0x3b, 0x2f, 0xfe, 0xac, 0xbd,
  0x58, 0xe2, 0xa6, 0x3d, 0xa2, 0x0b, 0xc8, 0x3e, 0xbe, 0x8e, 0x64, 0xbf,
  0xb0, 0x65, 0xb5, 0xbe, 0x17, 0x42, 0x3f, 0xbf, 0xf4, 0x5c, 0x3d, 0xbf,
  0xb4, 0x69, 0xcb, 0x3d, 0xba, 0x7d, 0xb1, 0xbe, 0x87, 0x7c, 0x83, 0xbf,
  0xf9, 0x94, 0xde, 0x3e, 0x54, 0xac, 0x59, 0x3f, 0x0f, 0x8a, 0x08, 0xbf,
  0x7e, 0x0e, 0x70, 0xbe, 0x0f, 0xd4, 0x04, 0x3e, 0xa2, 0x88, 0x5a, 0x3f,
  0x82, 0xd0, 0x72, 0xbf, 0xcb, 0xde, 0xb6, 0x3e, 0xfb, 0xa6, 0xb6, 0x3e,
  0x47, 0x34, 0xc4, 0xbe, 0x11, 0x31, 0xcf, 0x3e, 0x48, 0xa5, 0x47, 0x3d,
  0x3e, 0x62, 0x80, 0xbf, 0x04, 0xee, 0xff, 0xff, 0x4a, 0xee, 0xff, 0xff,
  0x04, 0x00, 0x00, 0x00, 0x50, 0x00, 0x00, 0x00, 0xad, 0x3d, 0x2e, 0x3f,
  0xe8, 0x88, 0x88, 0xbd, 0xfd, 0x22, 0x7b, 0xb9, 0x73, 0x17, 0xf1, 0xbd,
  0xbb, 0xde, 0xc4, 0xbb, 0xad, 0xb2, 0x0a, 0x3a, 0x1b, 0xb8, 0x21, 0x3f,
  0x6d, 0x3e, 0x0f, 0x3f, 0x36, 0xe0, 0xf8, 0xbc, 0x20, 0x41, 0xd1, 0x3e,
  0x47, 0x6c, 0xd1, 0xbc, 0xde, 0x4f, 0x13, 0x3f, 0x0d, 0xb5, 0x03, 0x3f,
  0xbc, 0x43, 0xf2, 0x38, 0xd5, 0xba, 0x80, 0x3d, 0x16, 0xe3, 0x70, 0xbd,
  0xb7, 0x6a, 0x81, 0x39, 0xdc, 0xad, 0xf9, 0xbd, 0x22, 0xb3, 0xa8, 0x3e,
  0x52, 0x3f, 0x00, 0x3f, 0x64, 0xee, 0xff, 0xff, 0xaa, 0xee, 0xff, 0xff,
  0x04, 0x00, 0x00, 0x00, 0x18, 0x00, 0x00, 0x00, 0xfe, 0x39, 0x15, 0xbe,
  0xe1, 0xb1, 0xa9, 0xbe, 0x69, 0xac, 0xec, 0x3e, 0xd8, 0xf2, 0xbb, 0xbe,
  0x09, 0x93, 0x9d, 0x3e, 0xd7, 0xde, 0x91, 0xbe, 0x8c, 0xee, 0xff, 0xff,
  0xd2, 0xee, 0xff, 0xff, 0x04, 0x00, 0x00, 0x00, 0x50, 0x0a, 0x00, 0x00,
  0x6c, 0x67, 0x30, 0x3d, 0xc0, 0x52, 0x65, 0xbe, 0x1c, 0xe5, 0x2c, 0xbe,
  0xab, 0x5d, 0xb5, 0x3e, 0xb8, 0xa6, 0x18, 0x3c, 0xb4, 0x18, 0xdb, 0xbd,
  0x38, 0x57, 0xb6, 0x3e, 0xa7, 0x4f, 0x80, 0x3d, 0x88, 0x46, 0x09, 0xbe,
  0x61, 0xa7, 0xcc, 0xbe, 0x7c, 0xdc, 0x61, 0xbc, 0x29, 0xad, 0x47, 0xbe,
  0xea, 0x37, 0x6e, 0xbe, 0x39, 0x4d, 0xdf, 0xbe, 0x17, 0x62, 0x1e, 0xbd,
  0x39, 0xa1, 0x4d, 0xbe, 0xc2, 0xe2, 0x67, 0xbc, 0x7a, 0x8b, 0x50, 0x3e,
  0xa7, 0xa7, 0x63, 0xbd, 0x01, 0xb6, 0xd1, 0x3d, 0xaa, 0xbb, 0xed, 0x3e,
  0x39, 0xde, 0x69, 0xbe, 0xd0, 0x79, 0xc3, 0xbd, 0x29, 0x7d, 0x84, 0x3e,
  0xc2, 0xf8, 0x82, 0x3e, 0x0d, 0x38, 0xb9, 0x3d, 0x26, 0x25, 0x9c, 0x3e,
  0x67, 0x78, 0x08, 0xbe, 0x99, 0xac, 0x9d, 0xbe, 0xea, 0x2d, 0x62, 0xbe,
  0xf6, 0x99, 0xa0, 0x3e, 0x83, 0x7a, 0xfb, 0xbd, 0x65, 0xc0, 0x62, 0x3e,
  0x72, 0x77, 0x22, 0xbe, 0x25, 0x4e, 0xbd, 0x3d, 0x7f, 0x96, 0x71, 0x3c,
  0x78, 0x0c, 0xb0, 0xbe, 0xcd, 0xa8, 0x5b, 0x3e, 0xe7, 0x32, 0xab, 0xbd,
  0x24, 0x59, 0x8b, 0xbe, 0x26, 0x1d, 0xe1, 0x3d, 0x25, 0x28, 0x7d, 0x3d,
  0x7e, 0x01, 0x9f, 0xbd, 0x2f, 0xe7, 0x96, 0xbe, 0x0f, 0x92, 0x83, 0xbe,
  0xfb, 0xad, 0x79, 0xbd, 0x55, 0x1e, 0xe2, 0x3d, 0x31, 0x58, 0x56, 0xbe,
  0x2a, 0x41, 0x3f, 0xbd, 0x14, 0xe6, 0x02, 0xbe, 0xaf, 0x53, 0x26, 0x3e,
  0x57, 0x25, 0xe9, 0x3d, 0x86, 0x97, 0xda, 0xbc, 0x0c, 0x70, 0x9f, 0xbe,
  0x2e, 0x76, 0xb5, 0xbb, 0xd7, 0x55, 0x15, 0xbe, 0x92, 0x0d, 0xb4, 0x3c,
  0xf7, 0x28, 0x8b, 0x3b, 0x25, 0x07, 0x45, 0x3e, 0x71, 0x55, 0x48, 0xbe,
  0x44, 0xba, 0x96, 0xbe, 0x03, 0xea, 0x94, 0xbd, 0x0e, 0x4b, 0x4d, 0xbe,
  0x83, 0xb2, 0xb8, 0xbc, 0x45, 0x62, 0x8a, 0x3e, 0x34, 0xaa, 0x61, 0xbd,
  0x6f, 0x06, 0x13, 0x3e, 0x61, 0xc6, 0x87, 0x3e, 0xf7, 0x55, 0xe1, 0xbd,
  0x86, 0xcc, 0x09, 0xbe, 0x00, 0xd2, 0x69, 0xbd, 0x79, 0x3e, 0xd6, 0xbd,
  0x52, 0xd6, 0x90, 0x3e, 0xea, 0xad, 0x10, 0xbd, 0x14, 0xe7, 0xab, 0xbe,
  0x3a, 0x26, 0x81, 0xbe, 0x03, 0x09, 0xb5, 0x3d, 0x06, 0x4f, 0x00, 0x3e,
  0x24, 0x8b, 0x5a, 0x3c, 0xe3, 0x3d, 0x16, 0x3f, 0x17, 0xf7, 0x3d, 0x3e,
  0x43, 0x94, 0xee, 0xbc, 0xf0, 0xb8, 0x83, 0x3e, 0x13, 0x11, 0x26, 0x3e,
  0x84, 0x0d, 0x08, 0x3e, 0x01, 0x0a, 0x96, 0xbd, 0xcd, 0x9e, 0x87, 0x3d,
  0xb1, 0xfc, 0x03, 0xbe, 0xf3, 0xff, 0x98, 0xbe, 0x5c, 0xfc, 0xea, 0xbd,
  0x1a, 0x17, 0x75, 0xbd, 0xaf, 0x74, 0x36, 0xbe, 0xca, 0xe6, 0xfa, 0xbc,
  0x39, 0xa8, 0x94, 0x3d, 0xa3, 0x61, 0x97, 0x3d, 0x80, 0x64, 0x15, 0xbd,
  0xc3, 0xc3, 0xd7, 0xbe, 0xa1, 0x6c, 0x28, 0x3d, 0xae, 0xb2, 0xb3, 0xbe,
  0x21, 0xc3, 0x70, 0x3d, 0xe2, 0x50, 0x6d, 0xbc, 0x69, 0xf5, 0x43, 0xbd,
  0xe0, 0x7a, 0x4f, 0x3d, 0x56, 0xe5, 0x89, 0xbe, 0xd5, 0x2a, 0x75, 0x3e,
  0xfc, 0xd6, 0x41, 0xbe, 0x5b, 0x65, 0x92, 0x3e, 0xe2, 0x0b, 0x08, 0x3e,
  0xb4, 0x6e, 0x6b, 0x3e, 0x53, 0xb9, 0xbe, 0x3e, 0x05, 0xdb, 0x28, 0xbe,
  0x86, 0xe0, 0x05, 0x3e, 0xa1, 0x1c, 0x90, 0x3d, 0x19, 0xcf, 0x0a, 0xbe,
  0xba, 0x7a, 0x39, 0x3e, 0x24, 0x02, 0xe2, 0xbd, 0x1a, 0x9e, 0x9f, 0x3d,
  0xcb, 0xa0, 0xa6, 0x3d, 0xfa, 0x8e, 0xc2, 0x3e, 0x55, 0x87, 0xe5, 0xbe,
  0xd2, 0x2f, 0x31, 0xbe, 0x77, 0x13, 0x48, 0xbe, 0x4b, 0x22, 0x80, 0xbe,
  0x84, 0x37, 0x07, 0x3e, 0xf3, 0xff, 0x14, 0x3e, 0x8c, 0x40, 0x2e, 0x3d,
  0x6a, 0xcb, 0xe1, 0x3d, 0xe1, 0x1d, 0x39, 0xbe, 0x06, 0x94, 0x15, 0xbd,
  0xb4, 0x6e, 0xd4, 0xbe, 0xfb, 0xe8, 0x12, 0xbe, 0xc6, 0x9c, 0xc5, 0xbc,
  0x88, 0xbf, 0x05, 0xbe, 0x60, 0x3d, 0x23, 0x3e, 0x31, 0xaf, 0x20, 0xbe,
  0xb6, 0x74, 0x1e, 0x3e, 0x92, 0xca, 0x68, 0xbd, 0xf3, 0xaa, 0xb3, 0x3d,
  0xb6, 0x85, 0xa1, 0xbe, 0x54, 0x42, 0x60, 0xbe, 0x72, 0xbe, 0xe8, 0xbe,
  0xed, 0xc4, 0x86, 0xbe, 0xd9, 0x3d, 0xdf, 0xbe, 0xff, 0xfa, 0xfa, 0x3e,
  0x0b, 0x77, 0xa7, 0xbe, 0x3b, 0x05, 0x0f, 0x3f, 0x86, 0x5f, 0xb9, 0x3d,
  0x1d, 0xda, 0x05, 0x3e, 0x97, 0x03, 0x47, 0xbe, 0x59, 0x1b, 0x6c, 0xbe,
  0x72, 0xa2, 0x1b, 0x3f, 0x7c, 0x84, 0x4e, 0xbe, 0xec, 0x6c, 0xbc, 0xbe,
  0x39, 0x69, 0xa5, 0x3e, 0x5d, 0xd4, 0x04, 0x3f, 0xe0, 0x53, 0x44, 0xbe,
  0x51, 0xca, 0x36, 0x3e, 0xd9, 0xd3, 0x8b, 0x3e, 0xd0, 0x84, 0xa9, 0x3e,
  0x1f, 0xe8, 0x8a, 0xbd, 0xdf, 0x7a, 0x9c, 0xbc, 0x65, 0x9b, 0x05, 0x3e,
  0xb9, 0xda, 0xf7, 0x3e, 0xa4, 0x3e, 0x05, 0x3e, 0x02, 0x7f, 0x33, 0xbe,
  0x7a, 0x2b, 0x8c, 0x3e, 0xcf, 0x36, 0xbb, 0x3e, 0x1a, 0xa3, 0xb2, 0x3e,
  0x91, 0xbd, 0x97, 0x3e, 0x0b, 0xb8, 0x8e, 0x3e, 0x41, 0x76, 0x34, 0x3e,
  0xd2, 0x46, 0xca, 0xbd, 0xae, 0xcf, 0x92, 0xbe, 0x6c, 0x5c, 0x48, 0xbe,
  0x30, 0x57, 0x36, 0xbe, 0xef, 0x8c, 0x8f, 0xbd, 0x58, 0xf5, 0x30, 0xbe,
  0xc1, 0x59, 0xca, 0x3e, 0xb5, 0x18, 0xe8, 0xbd, 0x7c, 0x5f, 0x58, 0x3e,
  0x23, 0x29, 0x14, 0x3e, 0x37, 0x9c, 0x1e, 0x3e, 0x7f, 0xc4, 0x6a, 0xbe,
  0x12, 0x0c, 0x24, 0x3f, 0x71, 0x02, 0xea, 0xbe, 0x7f, 0xd5, 0x23, 0xbf,
  0x82, 0x1d, 0xe5, 0xbe, 0x83, 0xee, 0x39, 0xbe, 0xb3, 0xa3, 0xeb, 0x3d,
  0x7e, 0xb1, 0xfa, 0xbe, 0xbd, 0x22, 0xe3, 0x3c, 0xe5, 0x6f, 0xf5, 0xbd,
  0x61, 0x6f, 0x18, 0x3d, 0x1f, 0xba, 0x3a, 0x3b, 0x44, 0x58, 0xe1, 0xbe,
  0x25, 0x4a, 0x25, 0xbb, 0xfb, 0x23, 0xf3, 0xbe, 0x41, 0x9c, 0xea, 0xbc,
  0x1f, 0xdf, 0x2c, 0x3e, 0x22, 0x2f, 0x0b, 0x3e, 0x68, 0xd9, 0xcf, 0xbd,
  0x03, 0x9a, 0xba, 0x3d, 0x4a, 0xcc, 0x1f, 0xb8, 0xda, 0x11, 0x27, 0x3e,
  0x9d, 0x8a, 0x6d, 0xbe, 0x30, 0x2e, 0xda, 0xbe, 0xd9, 0xd5, 0x7d, 0xbe,
  0x5e, 0xc1, 0xfb, 0x3d, 0x34, 0x52, 0x1f, 0x3e, 0x2f, 0x83, 0x06, 0xbe,
  0xc8, 0x8e, 0x82, 0x3d, 0xd6, 0x46, 0x15, 0xbe, 0x01, 0x65, 0xa4, 0xbd,
  0x27, 0x74, 0x14, 0xbe, 0xce, 0x82, 0xdc, 0x3d, 0xa2, 0x58, 0x89, 0x3e,
  0x43, 0x68, 0x2b, 0xbf, 0x3a, 0x06, 0xb8, 0x3e, 0xbc, 0x6e, 0x51, 0x3e,
  0xe3, 0x7d, 0x90, 0x3e, 0x58, 0x3a, 0xea, 0xbe, 0xbc, 0xa8, 0x3a, 0x3e,
  0xde, 0x09, 0xbb, 0x3d, 0x3d, 0x93, 0x3b, 0xbd, 0xd2, 0xb7, 0x9b, 0xbd,
  0x5d, 0xf9, 0xad, 0x3d, 0x82, 0xbd, 0x02, 0xbe, 0x82, 0x09, 0xf6, 0xbe,
  0x51, 0x3f, 0xb8, 0x3d, 0x7a, 0x6d, 0x1e, 0xbe, 0xd6, 0x4f, 0x4b, 0x3d,
  0xd9, 0xb0, 0x8b, 0xbd, 0x2c, 0xfe, 0xad, 0x3e, 0xe3, 0xe4, 0x2d, 0xbe,
  0x13, 0x55, 0x13, 0xbd, 0x22, 0x17, 0x81, 0xbb, 0xa3, 0x86, 0xc0, 0x3d,
  0x98, 0xc7, 0x0c, 0x3d, 0x36, 0x11, 0xa7, 0x3d, 0x2b, 0x45, 0x03, 0x3e,
  0xcf, 0x66, 0x2a, 0xbd, 0xcf, 0x44, 0x1f, 0xbe, 0x4c, 0x69, 0xda, 0xbe,
  0xe9, 0x86, 0xc6, 0xbd, 0x40, 0xd1, 0x63, 0xbc, 0x90, 0x17, 0x6c, 0x3e,
  0x1d, 0x2f, 0x93, 0xbe, 0x29, 0x76, 0x20, 0xbd, 0xd5, 0x03, 0x21, 0xbe,
  0x9e, 0x37, 0x86, 0xbe, 0xbe, 0x17, 0x25, 0x3d, 0xa9, 0x6d, 0x85, 0xbe,
  0xd2, 0xcd, 0x10, 0x3e, 0x18, 0x37, 0xf0, 0xbd, 0xa0, 0xd1, 0xf3, 0xbd,
  0x9d, 0x39, 0xe6, 0xbe, 0x49, 0xf3, 0x6e, 0x3e, 0x2e, 0x2d, 0xa9, 0x3d,
  0xba, 0x8c, 0x0a, 0xbd, 0x5e, 0xd2, 0x70, 0xbe, 0xdd, 0x17, 0x9f, 0x3c,
  0x6b, 0x17, 0x88, 0xbe, 0xd4, 0xbb, 0x73, 0xbe, 0x20, 0x3a, 0xea, 0x3d,
  0x8c, 0x4c, 0x9d, 0x3e, 0x87, 0x6d, 0xf4, 0x3d, 0xb4, 0xb7, 0x59, 0xbe,
  0xf4, 0xf3, 0x9f, 0x3d, 0xd2, 0xf7, 0xc7, 0xbc, 0x64, 0xa8, 0x89, 0xbd,
  0x32, 0xdd, 0x99, 0x3e, 0xb9, 0x03, 0x87, 0xbe, 0x8d, 0xf3, 0x87, 0xbd,
  0x37, 0x12, 0x38, 0xbe, 0xc5, 0xc4, 0x69, 0x3e, 0x43, 0x63, 0xa5, 0xbe,
  0x7e, 0x46, 0x6d, 0x3d, 0x24, 0x61, 0xd3, 0xbe, 0x66, 0x79, 0x85, 0x3d,
  0x0d, 0x6b, 0x31, 0x3d, 0xe3, 0xcf, 0x09, 0x3e, 0x8f, 0xf7, 0x8e, 0x3d,
  0x9a, 0x39, 0x44, 0x3d, 0x13, 0xc8, 0x18, 0x3e, 0x6c, 0xb0, 0x91, 0xbe,
  0xaa, 0x45, 0x31, 0xbf, 0x37, 0x09, 0xfd, 0x3d, 0x0f, 0x7d, 0x85, 0x3e,
  0xdc, 0xb0, 0x09, 0x3f, 0x10, 0xf5, 0x48, 0xbd, 0x3c, 0x1c, 0x3f, 0x3e,
  0xa3, 0x83, 0xa9, 0x3d, 0xf7, 0xbb, 0x14, 0x3e, 0x6d, 0xce, 0x91, 0x3e,
  0x5d, 0x45, 0x52, 0x3e, 0x63, 0x1b, 0xbb, 0x3e, 0x4a, 0xb5, 0x23, 0xbe,
  0x25, 0x74, 0x0d, 0x3e, 0xdf, 0x70, 0xba, 0x3e, 0xa9, 0xe1, 0x34, 0x3d,
  0x4e, 0x47, 0xc1, 0xbb, 0xcc, 0xd5, 0xfd, 0x3e, 0x8d, 0x07, 0x9c, 0xbd,
  0x30, 0xa6, 0x7e, 0x3b, 0x6b, 0x18, 0x0c, 0xbf, 0x46, 0x38, 0xbd, 0xbe,
  0x87, 0xd1, 0xbc, 0xbc, 0x9d, 0xe1, 0x9d, 0x3e, 0x25, 0x84, 0x21, 0x3e,
  0x7e, 0xd4, 0xfb, 0x3d, 0x1d, 0x0f, 0x1f, 0xbe, 0x11, 0xd1, 0x58, 0x3e,
  0x16, 0xc7, 0x05, 0x3d, 0x54, 0x03, 0x5f, 0x3c, 0x64, 0xff, 0x29, 0x3a,
  0xa8, 0xe3, 0xa5, 0xbe, 0xe0, 0x42, 0xae, 0xbe, 0xa9, 0x85, 0xbd, 0x3e,
  0x02, 0x8f, 0x98, 0xbe, 0x44, 0xcd, 0xb2, 0xbd, 0x17, 0xde, 0x97, 0x3e,
  0x70, 0xda, 0xe8, 0xbe, 0xa0, 0x56, 0x3e, 0x3e, 0xe0, 0x05, 0x91, 0x3b,
  0x46, 0xc2, 0xa0, 0xbd, 0x68, 0x6b, 0x01, 0x3e, 0x48, 0xa1, 0xb9, 0xbe,
  0x34, 0x3c, 0x2f, 0xbf, 0x28, 0x1b, 0x95, 0xbe, 0x12, 0xdc, 0xce, 0xbe,
  0x4f, 0x28, 0x3e, 0x3e, 0x71, 0x1c, 0xac, 0xbe, 0xab, 0x71, 0xaa, 0x3d,
  0xb5, 0x94, 0x9d, 0x3d, 0x90, 0x18, 0x13, 0x3d, 0x35, 0x68, 0xab, 0x3e,
  0x82, 0x5a, 0x03, 0xbf, 0xdf, 0xd7, 0xa7, 0x3d, 0x5b, 0x79, 0xa5, 0x3b,
  0xa7, 0x3d, 0x20, 0xbe, 0xe7, 0x87, 0xda, 0xbe, 0x56, 0x6a, 0x03, 0x3f,
  0x06, 0x14, 0xcb, 0xbd, 0xcc, 0x4b, 0xd2, 0x3e, 0x63, 0x74, 0x8b, 0xbd,
  0x82, 0xe7, 0x9d, 0x3d, 0x4c, 0xd0, 0x0e, 0x3d, 0xa2, 0xc9, 0xf8, 0xbc,
  0xed, 0x44, 0x05, 0x3f, 0x36, 0xd9, 0x70, 0x3d, 0x14, 0x7c, 0x29, 0xbe,
  0xa0, 0xa9, 0xf6, 0xbd, 0x38, 0xe0, 0x8a, 0xba, 0x17, 0xff, 0xc4, 0xbd,
  0xac, 0xa0, 0x27, 0xbe, 0x36, 0x3e, 0xfb, 0xbd, 0x57, 0x7f, 0xe2, 0xbd,
  0xb5, 0x34, 0x33, 0xbe, 0x40, 0x7e, 0x9c, 0xbe, 0xd2, 0x26, 0x06, 0x3e,
  0x95, 0x57, 0x34, 0x3d, 0xd3, 0x84, 0xec, 0xbd, 0x2e, 0x9b, 0x3f, 0xbe,
  0xa2, 0xa0, 0xb6, 0xbe, 0x53, 0x4a, 0xd8, 0x3e, 0xe0, 0xec, 0x8b, 0xbe,
  0xd4, 0x0d, 0xe5, 0x3d, 0x6b, 0xd7, 0x09, 0xbe, 0x7e, 0x04, 0x91, 0xbd,
  0x55, 0x69, 0x97, 0x3e, 0xd9, 0x96, 0x8e, 0x3d, 0xa3, 0x28, 0x9e, 0xbd,
  0x27, 0x64, 0xfa, 0xbc, 0x17, 0x6c, 0x36, 0xbe, 0x22, 0x17, 0xf3, 0x3c,
  0x0a, 0x79, 0x8e, 0x3e, 0x52, 0x39, 0xd8, 0x3e, 0x28, 0xd2, 0x78, 0x3b,
  0x43, 0x03, 0xae, 0x3e, 0x97, 0x84, 0xc5, 0xb9, 0x6d, 0x9f, 0x75, 0x3e,
  0xb8, 0xd6, 0x37, 0xbf, 0xd7, 0x95, 0xdb, 0x3e, 0xa7, 0x2a, 0x21, 0x3f,
  0x32, 0xd1, 0x8f, 0x3e, 0x8a, 0xf8, 0xa9, 0xbc, 0x88, 0x53, 0x5e, 0xbe,
  0xbc, 0x6f, 0x15, 0xbd, 0xea, 0x81, 0x35, 0xbe, 0x40, 0x43, 0xa8, 0xbe,
  0xbc, 0xac, 0x04, 0x3e, 0x35, 0x9a, 0x28, 0x3e, 0x20, 0x45, 0x02, 0xbf,
  0x6e, 0x0a, 0xdd, 0xbd, 0xfa, 0xb6, 0xfa, 0xbd, 0x0a, 0xa7, 0x9e, 0xbe,
  0x9d, 0xa2, 0xa6, 0xbe, 0x97, 0xd7, 0xc5, 0x3c, 0x98, 0xc2, 0xd8, 0xbe,
  0xca, 0x3c, 0xc5, 0x3d, 0x4a, 0xd0, 0xfe, 0xbc, 0xd7, 0x5e, 0x87, 0x3e,
  0xc4, 0x3e, 0x30, 0x3e, 0x82, 0xfb, 0xac, 0xbe, 0xab, 0xe3, 0x21, 0xbe,
  0x50, 0x2b, 0x4d, 0x3e, 0x6a, 0xad, 0x99, 0x3d, 0x41, 0x36, 0xbc, 0xbd,
  0x76, 0xd2, 0x14, 0x3f, 0x51, 0x7a, 0x3d, 0x3e, 0x9c, 0x21, 0x94, 0x3e,
  0xe3, 0x1f, 0xfd, 0xbb, 0x23, 0x4f, 0x9f, 0xbd, 0xd2, 0x00, 0xc0, 0x3e,
  0x01, 0x49, 0x02, 0xbf, 0x6a, 0xdb, 0xd7, 0x3e, 0x11, 0x50, 0xd3, 0x3e,
  0x08, 0x80, 0x8d, 0x3e, 0xc3, 0xee, 0x01, 0x3d, 0x97, 0xf7, 0xf8, 0xbd,
  0x30, 0x86, 0x51, 0x3e, 0x27, 0x68, 0x3c, 0x3c, 0xf1, 0x17, 0x21, 0x3e,
  0xd9, 0xef, 0xd0, 0xbd, 0x5f, 0x85, 0x7b, 0x3e, 0x51, 0x77, 0x2a, 0x3d,
  0x5c, 0x59, 0xf7, 0xbe, 0x92, 0x04, 0x93, 0xbe, 0x7b, 0x5b, 0x25, 0xbe,
  0x0a, 0xaa, 0xd4, 0xbe, 0xfe, 0xd8, 0x72, 0x3c, 0xa6, 0x56, 0x53, 0xbe,
  0x76, 0xf0, 0x41, 0x3e, 0x63, 0x4a, 0x5f, 0xbe, 0x05, 0x04, 0xdb, 0x3d,
  0xc2, 0x6d, 0x7b, 0xbe, 0x8f, 0x15, 0xf3, 0x3d, 0x20, 0x92, 0xc0, 0x3d,
  0xbd, 0xa6, 0xbb, 0x3d, 0xf4, 0x9c, 0x52, 0x3d, 0x69, 0xff, 0xca, 0x3e,
  0x7b, 0xd0, 0xea, 0x3d, 0x1c, 0x3a, 0x01, 0x3f, 0xbd, 0x3a, 0x06, 0x3e,
  0x3d, 0x68, 0x8e, 0x3e, 0x4a, 0x70, 0xb1, 0x3d, 0x4a, 0x97, 0xb2, 0xba,
  0x04, 0xc5, 0x11, 0x3d, 0x39, 0x26, 0xa5, 0xbe, 0x93, 0xd9, 0xf6, 0x3e,
  0x2c, 0x69, 0xd1, 0xbd, 0xf4, 0x71, 0xb5, 0xbe, 0xf8, 0x11, 0x88, 0x3e,
  0x00, 0x19, 0x79, 0x3b, 0xd8, 0x43, 0x15, 0x3e, 0x82, 0x58, 0xcc, 0xbe,
  0x82, 0x9b, 0xca, 0xbd, 0xd4, 0x37, 0xb4, 0xbe, 0x4b, 0xcd, 0xaf, 0xbd,
  0x46, 0x5b, 0xc2, 0xbe, 0x8c, 0x14, 0x9b, 0xbe, 0x72, 0xa5, 0xd2, 0x3d,
  0xfd, 0x30, 0xe0, 0x3c, 0xfd, 0xd1, 0xa0, 0xbe, 0x81, 0xa7, 0x99, 0xbd,
  0x16, 0x8e, 0x46, 0x3e, 0x30, 0x59, 0xca, 0x3c, 0x05, 0x31, 0x12, 0x3e,
  0xf1, 0x64, 0x08, 0xbf, 0xf5, 0xdd, 0x89, 0x3d, 0x29, 0xda, 0x0f, 0xbc,
  0xed, 0x52, 0x4e, 0x3e, 0x47, 0xab, 0x12, 0xbf, 0x7c, 0xe0, 0x88, 0xbd,
  0xb2, 0x01, 0x42, 0xbd, 0xec, 0x14, 0x6d, 0x3d, 0x17, 0xaa, 0x54, 0x3e,
  0xe9, 0x8f, 0x59, 0xbd, 0xfd, 0xf9, 0x1b, 0x3e, 0xd8, 0xb3, 0x50, 0xbe,
  0xc4, 0x1b, 0x3e, 0xbd, 0xe2, 0x09, 0x85, 0xbe, 0x2e, 0xe3, 0xd9, 0xbe,
  0x8a, 0xcb, 0x84, 0xbe, 0xe1, 0xee, 0xef, 0x3d, 0x16, 0x73, 0x8b, 0x3e,
  0xf7, 0xbb, 0x5a, 0xbe, 0x94, 0x11, 0xa1, 0x3e, 0xe1, 0x0c, 0xab, 0x3d,
  0x7e, 0x70, 0x73, 0x3e, 0xb6, 0xc8, 0x4d, 0xbe, 0x96, 0x30, 0xc4, 0xbb,
  0xd4, 0xf4, 0xf5, 0xbd, 0x70, 0x8d, 0xe9, 0x3b, 0x2a, 0xd6, 0x4d, 0x3e,
  0xfc, 0xce, 0x25, 0x3e, 0x3f, 0x9f, 0xb3, 0x3d, 0x1b, 0x1e, 0xb9, 0xbd,
  0x16, 0xe0, 0x47, 0x3e, 0xde, 0x65, 0xc5, 0xbd, 0xe2, 0xa3, 0x4d, 0xbe,
  0x54, 0x0b, 0x9b, 0xbd, 0x53, 0x91, 0xf4, 0xbd, 0x8c, 0x59, 0xf5, 0x3c,
  0xc5, 0xae, 0xc8, 0xbd, 0x65, 0x58, 0xfe, 0x3d, 0x08, 0x8f, 0xd2, 0xbd,
  0x9b, 0xd8, 0xe8, 0x3d, 0x26, 0xed, 0xb2, 0xbd, 0xb2, 0x77, 0x93, 0x3e,
  0xc5, 0x0d, 0x40, 0x3e, 0x2b, 0xf7, 0xc5, 0xbe, 0xc1, 0x93, 0xde, 0x3d,
  0x72, 0x42, 0xcc, 0x3e, 0x0c, 0x66, 0xc8, 0xbe, 0x85, 0x41, 0xad, 0xbe,
  0xce, 0x10, 0x28, 0xbd, 0x73, 0x20, 0xa0, 0x3e, 0xb8, 0xbd, 0xde, 0xbd,
  0xf6, 0x85, 0x2b, 0x3e, 0xd9, 0x9a, 0x45, 0x3e, 0x04, 0xd8, 0xc8, 0xbe,
  0xf6, 0xc0, 0x4e, 0xbe, 0xfb, 0x02, 0xf7, 0x3d, 0x25, 0x98, 0x87, 0x3e,
  0xb8, 0xcb, 0x98, 0xbc, 0x92, 0x5c, 0x06, 0xbe, 0xb4, 0xb7, 0xe8, 0xbc,
  0x28, 0xaa, 0x68, 0x3c, 0x04, 0x58, 0x10, 0x3f, 0x7f, 0x61, 0x24, 0xbe,
  0xfe, 0xd1, 0x95, 0x3e, 0xbc, 0x35, 0x3e, 0x3d, 0x2a, 0x61, 0xe7, 0xbc,
  0xc1, 0x51, 0x8b, 0xbe, 0xbb, 0xb8, 0x01, 0xbe, 0x52, 0xae, 0x08, 0xbe,
  0xe1, 0x03, 0x4c, 0xbd, 0x9b, 0x30, 0xba, 0xbd, 0x05, 0x0a, 0x1e, 0xbe,
  0x97, 0x42, 0x4f, 0x3e, 0x93, 0xf1, 0x62, 0x3e, 0x68, 0x1c, 0x9b, 0xbd,
  0x86, 0xfe, 0x9d, 0x3d, 0x4c, 0x67, 0x89, 0x3c, 0x2c, 0x42, 0xbd, 0xbe,
  0xa1, 0x9e, 0x46, 0xbe, 0xfa, 0xca, 0xdd, 0x3d, 0x0c, 0x3f, 0xb6, 0x3e,
  0x29, 0x46, 0xfc, 0xbd, 0x0f, 0x21, 0x79, 0xbe, 0x81, 0xe1, 0xe6, 0x3e,
  0x29, 0x6b, 0x3a, 0xbe, 0x92, 0x83, 0x15, 0x3e, 0xfa, 0xf9, 0xc2, 0xbd,
  0xaf, 0x4c, 0x6c, 0xbd, 0x25, 0xfc, 0x54, 0xbc, 0xc1, 0x1c, 0xc2, 0xbe,
  0xd6, 0xa4, 0xb6, 0xbe, 0x1d, 0x52, 0x42, 0xbe, 0x14, 0x78, 0xe5, 0xbe,
  0x6f, 0x20, 0x1e, 0x3d, 0x9c, 0xab, 0x82, 0xbd, 0xa6, 0x93, 0x41, 0x3e,
  0x66, 0x7f, 0xb9, 0xbc, 0x07, 0xd6, 0x5e, 0x3b, 0x1f, 0xe8, 0x93, 0xbe,
  0x7c, 0xe8, 0x6b, 0x3e, 0x82, 0xd4, 0x60, 0xbe, 0x83, 0xf3, 0xd1, 0xbd,
  0x40, 0x9b, 0xcd, 0x3e, 0x62, 0x72, 0x2c, 0x3e, 0xf5, 0x2e, 0x40, 0xbe,
  0x20, 0x5b, 0x4b, 0x3e, 0xd4, 0x4f, 0xa4, 0xbd, 0xd5, 0x54, 0xfe, 0xbd,
  0x9b, 0xd5, 0xbc, 0xbd, 0xda, 0xff, 0x14, 0xbe, 0x9e, 0xfa, 0xa4, 0xbd,
  0xc6, 0xa6, 0x76, 0xbe, 0xb2, 0x0c, 0x52, 0xbe, 0x40, 0xae, 0x03, 0xbe,
  0x43, 0xdd, 0x63, 0xbe, 0x6b, 0xc2, 0x37, 0xbe, 0xf1, 0x03, 0x48, 0xbd,
  0x31, 0x4e, 0x9f, 0xbe, 0x73, 0x25, 0x98, 0xbe, 0xd8, 0xbe, 0x80, 0xbc,
  0x03, 0xf7, 0xc6, 0x3d, 0xfa, 0xe7, 0x40, 0xbd, 0x08, 0x85, 0xae, 0xbe,
  0xfb, 0x6a, 0x72, 0xbe, 0x6f, 0x9f, 0x17, 0xbe, 0x37, 0x11, 0xa4, 0xbe,
  0x8c, 0xe9, 0x9e, 0xbc, 0x1f, 0x3e, 0xb1, 0x3d, 0x06, 0x26, 0x0c, 0x3e,
  0x8e, 0x31, 0x13, 0x3e, 0x02, 0xae, 0x72, 0xbd, 0x0f, 0x6b, 0x32, 0xbe,
  0x2e, 0xd9, 0x24, 0xbe, 0xcf, 0x62, 0x3d, 0x3c, 0x58, 0x10, 0x59, 0xbd,
  0xfc, 0xfa, 0x20, 0x3c, 0x89, 0x89, 0x8c, 0xbe, 0x44, 0x12, 0x7e, 0x3d,
  0x0a, 0x7a, 0x88, 0x3e, 0x7d, 0xd8, 0xdc, 0xbb, 0x73, 0x58, 0xc6, 0xbd,
  0x08, 0x48, 0xad, 0xbd, 0x36, 0xb2, 0x9a, 0xbe, 0x7c, 0x98, 0x24, 0x3e,
  0x66, 0x46, 0x79, 0xbe, 0x27, 0x32, 0x4c, 0xbe, 0xb7, 0xe4, 0x8d, 0xbe,
  0x04, 0xfe, 0xbe, 0x3c, 0x95, 0xd0, 0xd4, 0x3d, 0x47, 0x93, 0x0f, 0x3e,
  0xd7, 0xdb, 0x5b, 0xbe, 0x9c, 0x2f, 0x06, 0xbd, 0x3d, 0xd9, 0xaa, 0xbe,
  0x7d, 0xd8, 0xd9, 0xbe, 0xda, 0xec, 0x43, 0xbe, 0x8d, 0x9f, 0xeb, 0x3d,
  0xa8, 0xe7, 0x2e, 0xbe, 0xe9, 0x48, 0x94, 0xbe, 0x3f, 0x33, 0xa1, 0x3d,
  0x06, 0xe1, 0x25, 0xbe, 0xf5, 0x55, 0x14, 0x3f, 0xc1, 0xf4, 0x34, 0xbe,
  0xc5, 0xd7, 0x42, 0x3e, 0x72, 0xe8, 0x76, 0xbe, 0x96, 0xc7, 0xa1, 0xbd,
  0xad, 0x4a, 0xd1, 0xbd, 0x2c, 0x97, 0xa5, 0xbc, 0xe5, 0xa0, 0xa8, 0xbe,
  0x8d, 0x03, 0xa3, 0xbd, 0xec, 0xbe, 0x84, 0xbe, 0x06, 0x97, 0x91, 0x3e,
  0x5d, 0x20, 0xe6, 0x3d, 0xeb, 0x4d, 0xf7, 0x3e, 0xfc, 0xbd, 0x71, 0x3e,
  0xa2, 0x27, 0xb9, 0xbd, 0x3f, 0x64, 0x6d, 0xbc, 0x63, 0xd6, 0x26, 0x3e,
  0xe1, 0x63, 0x11, 0xbe, 0x2f, 0xc8, 0x2f, 0x3f, 0x8f, 0x3e, 0xc2, 0x3e,
  0x91, 0x4e, 0x92, 0x3d, 0x9c, 0x12, 0xcf, 0xbe, 0x93, 0xbb, 0x06, 0xbd,
  0x8d, 0xc8, 0xd0, 0xbe, 0xaa, 0xd8, 0xa8, 0xbd, 0x53, 0x23, 0x30, 0x3e,
  0x77, 0x5d, 0xab, 0xbd, 0x1d, 0x00, 0x64, 0xbc, 0x5d, 0x1e, 0x1f, 0xbe,
  0xb2, 0x1c, 0xed, 0x3b, 0x6b, 0xba, 0xa1, 0x3d, 0xb6, 0xf5, 0xfc, 0xbe,
  0x2e, 0xf9, 0xff, 0xff, 0x04, 0x00, 0x00, 0x00, 0x20, 0x03, 0x00, 0x00,
  0xa7, 0x02, 0xb3, 0xbe, 0x5f, 0xb9, 0xcf, 0x3e, 0xf6, 0x01, 0xb5, 0x3c,
  0xba, 0x2c, 0x28, 0x3c, 0xca, 0xa8, 0xc7, 0x3d, 0xc4, 0x9d, 0x74, 0x3d,
  0xbb, 0x6d, 0x96, 0xbe, 0xe9, 0x9b, 0x46, 0xbe, 0x6e, 0x5d, 0xaa, 0xbe,
  0x2d, 0x7a, 0xfd, 0x3e, 0x82, 0x7b, 0x3c, 0x3e, 0x3d, 0xad, 0x0e, 0x3e,
  0x1a, 0xfb, 0xb7, 0x3d, 0xe9, 0xe4, 0xd1, 0x3d, 0x13, 0x23, 0xdf, 0xbe,
  0x2d, 0xb9, 0x90, 0x3d, 0x1d, 0x93, 0xb8, 0x3e, 0x42, 0xda, 0x91, 0xbc,
  0x79, 0xcd, 0xce, 0xbd, 0xd4, 0x60, 0xf5, 0x3e, 0xe1, 0xb4, 0xb8, 0xbd,
  0xa8, 0x68, 0x7a, 0xbe, 0x25, 0xb6, 0x69, 0x3e, 0x26, 0x9a, 0xbb, 0xbe,
  0x9e, 0x9c, 0x20, 0x3e, 0x70, 0x5d, 0x08, 0xbf, 0xb3, 0x47, 0xba, 0xbe,
  0xcd, 0xc2, 0xaa, 0xbe, 0x55, 0xd6, 0xcf, 0xbe, 0xd7, 0xac, 0x03, 0xbf,
  0xa9, 0x07, 0xc7, 0x3d, 0xab, 0x29, 0xc6, 0xbe, 0x63, 0x3a, 0xff, 0x3d,
  0x78, 0xff, 0x58, 0x3e, 0x80, 0xab, 0xf6, 0xbe, 0xc6, 0x0e, 0xf8, 0x3d,
  0x03, 0xd5, 0x78, 0x3e, 0x69, 0x90, 0x83, 0xbe, 0xdb, 0x6d, 0xb4, 0xbe,
  0xeb, 0xbe, 0x6d, 0xbe, 0x86, 0xb3, 0x98, 0x3e, 0xc9, 0x80, 0xe3, 0x3e,
  0x06, 0x14, 0xbb, 0xbe, 0xd7, 0xda, 0x0a, 0x3f, 0x0c, 0xe3, 0x26, 0xbf,
  0x6e, 0x6a, 0x01, 0x3f, 0x22, 0xca, 0x7c, 0xbd, 0x34, 0x6b, 0xaa, 0xbd,
  0xa1, 0xb3, 0x3b, 0x3e, 0xd0, 0x56, 0x33, 0x3f, 0x92, 0x60, 0x2f, 0x3e,
  0x8a, 0xe4, 0xbe, 0xbe, 0xe8, 0x94, 0xd8, 0xbe, 0x5d, 0xfb, 0x8e, 0xbe,
  0xf4, 0x9f, 0x49, 0x3e, 0x49, 0x03, 0xac, 0x3e, 0x50, 0xa7, 0x35, 0xbe,
  0x3f, 0xe5, 0x8a, 0xbe, 0x43, 0x39, 0x82, 0x3e, 0xd6, 0x0b, 0x85, 0xbe,
  0x82, 0x57, 0xe9, 0x3e, 0x63, 0x69, 0x3c, 0x3e, 0x03, 0xb4, 0x72, 0xbe,
  0xcc, 0x3a, 0xe7, 0xbe, 0xec, 0x05, 0xf5, 0xbe, 0x1c, 0xdb, 0xf3, 0x3e,
  0xab, 0x80, 0x33, 0x3f, 0x6d, 0xcb, 0xf7, 0x3e, 0x27, 0x97, 0x47, 0xbe,
  0x78, 0x51, 0x16, 0x3f, 0x89, 0xec, 0xdb, 0xbe, 0xfa, 0x71, 0x1d, 0x3e,
  0xa5, 0x36, 0x12, 0x3f, 0xb6, 0xb6, 0xb4, 0xbe, 0xd5, 0xb3, 0x00, 0x3e,
  0x29, 0x50, 0xa4, 0xbe, 0x8b, 0x4f, 0x98, 0x3e, 0xbc, 0x70, 0x05, 0xbf,
  0xfd, 0x4c, 0xdd, 0xbd, 0x5f, 0xac, 0x10, 0x3e, 0x53, 0x6e, 0x19, 0xbe,
  0x87, 0xed, 0x1a, 0xbe, 0xd7, 0xb7, 0xd2, 0x3e, 0x7c, 0xc6, 0x5d, 0x3d,
  0x47, 0x53, 0x9c, 0x3e, 0x07, 0x0d, 0xc0, 0x3e, 0xb1, 0xf3, 0x10, 0xbf,
  0x49, 0x58, 0xc7, 0xbe, 0x76, 0x38, 0x2b, 0xbf, 0x9f, 0x63, 0x40, 0xbd,
  0x83, 0x48, 0xf8, 0x3e, 0x0b, 0x5d, 0x71, 0xbe, 0xb0, 0x7f, 0xd0, 0xbe,
  0xc8, 0x2a, 0x1f, 0x3e, 0xd6, 0x83, 0xb7, 0x3e, 0xb5, 0x6e, 0x22, 0x3e,
  0xab, 0x8a, 0xd9, 0xbe, 0x3f, 0xad, 0xf9, 0x3e, 0xaa, 0xd8, 0xa4, 0xbd,
  0xfb, 0xad, 0xd4, 0xbd, 0x66, 0x33, 0x01, 0xbe, 0xeb, 0x59, 0xbb, 0xbe,
  0xeb, 0x36, 0x4c, 0xbe, 0x2b, 0xfc, 0x39, 0xbe, 0xd9, 0xd9, 0xa3, 0xbd,
  0x0f, 0xdd, 0x20, 0x3f, 0x3c, 0x72, 0x9f, 0xbe, 0x1c, 0xb3, 0xa0, 0xbd,
  0xb2, 0x9a, 0x8c, 0xbe, 0x96, 0xc3, 0xde, 0x3e, 0xc1, 0x9e, 0x14, 0x3f,
  0x07, 0x43, 0x76, 0x3e, 0xdc, 0x40, 0x73, 0xbe, 0xf2, 0x76, 0xc6, 0xbd,
  0xba, 0x4f, 0xa2, 0x3e, 0x60, 0x6d, 0x33, 0xbd, 0x17, 0x1d, 0xe3, 0x3e,
  0xb7, 0x35, 0x87, 0x3d, 0x71, 0xa4, 0xec, 0xbc, 0xcc, 0x27, 0x04, 0x3f,
  0xdc, 0xd0, 0x49, 0x3f, 0xc2, 0x4d, 0x35, 0xbe, 0x44, 0x63, 0x9f, 0xbc,
  0xf5, 0x28, 0x2f, 0xbe, 0x8a, 0x74, 0xc9, 0xbe, 0x73, 0x30, 0x03, 0xbf,
  0x0a, 0xdc, 0x75, 0x3f, 0x25, 0x0d, 0x24, 0x3f, 0x58, 0x49, 0x3d, 0xbf,
  0xdd, 0x52, 0x96, 0x3e, 0xbf, 0x3a, 0xf5, 0xbe, 0xcd, 0xfa, 0x6e, 0x3f,
  0x2e, 0xae, 0xff, 0x3e, 0x2f, 0x22, 0xde, 0xbb, 0xb4, 0x09, 0x53, 0xbd,
  0x28, 0x0d, 0xf3, 0xbe, 0x90, 0x43, 0xa1, 0xbe, 0xe9, 0x44, 0x8f, 0x3e,
  0x90, 0xe4, 0x01, 0x3e, 0x6f, 0x2c, 0x27, 0x3f, 0xf1, 0x55, 0x0e, 0x3f,
  0xf4, 0x23, 0x9c, 0x3c, 0xd3, 0x56, 0x61, 0xbe, 0x79, 0x8c, 0x95, 0x3e,
  0xec, 0xf0, 0xce, 0xbe, 0x9b, 0x8d, 0x40, 0x3e, 0xe6, 0x88, 0x5d, 0x3e,
  0xc9, 0xed, 0x8e, 0x3e, 0x83, 0x01, 0xa9, 0x3e, 0xdc, 0xa0, 0xea, 0xbc,
  0x9f, 0xd9, 0x6a, 0xbe, 0x4e, 0x1f, 0x89, 0x3e, 0xe7, 0x99, 0x36, 0x3e,
  0xa0, 0xae, 0x82, 0xbd, 0xcb, 0xce, 0x87, 0x3d, 0x33, 0x2f, 0x7f, 0xbe,
  0xf6, 0x71, 0x38, 0x3e, 0xa2, 0xcd, 0x9b, 0xbe, 0x76, 0xe3, 0xd9, 0x3e,
  0x94, 0xad, 0x0f, 0xbd, 0xb9, 0x19, 0x0a, 0x3f, 0x6b, 0xac, 0x2e, 0xbe,
  0xfc, 0x8d, 0x26, 0x3e, 0x83, 0x76, 0x9e, 0xbe, 0x11, 0x92, 0x3c, 0x3f,
  0xd8, 0x57, 0x19, 0xbf, 0xd5, 0x89, 0x67, 0xbe, 0xb0, 0xf0, 0x0e, 0xbf,
  0x1e, 0x14, 0xe4, 0x3e, 0x54, 0xdb, 0x2a, 0xbf, 0xaa, 0x8c, 0xa6, 0x3e,
  0xfb, 0xdb, 0xb5, 0x3e, 0x06, 0x37, 0xd4, 0x3e, 0x1d, 0x93, 0x3f, 0x3e,
  0xe9, 0x43, 0x01, 0x3f, 0x7f, 0x73, 0xcf, 0x3e, 0x8f, 0x32, 0x70, 0x3e,
  0x53, 0xce, 0x01, 0x3f, 0x20, 0x3c, 0x14, 0xbe, 0xc4, 0xda, 0x5d, 0x3d,
  0x2b, 0xc6, 0xb6, 0xbe, 0x19, 0xc9, 0xa6, 0xbe, 0xf2, 0x61, 0x38, 0x3f,
  0x2d, 0xe0, 0x20, 0xbe, 0x14, 0xb2, 0x2e, 0x3e, 0xa7, 0x26, 0xa5, 0x3e,
  0xdd, 0x53, 0x5f, 0xbe, 0x3d, 0xa5, 0xeb, 0xbe, 0x2f, 0xf0, 0x9d, 0xbe,
  0x6e, 0x80, 0x83, 0x3e, 0xbe, 0xb4, 0x52, 0xbe, 0x30, 0x7f, 0x09, 0x3f,
  0x63, 0xcc, 0x92, 0x3e, 0x53, 0xae, 0x22, 0x3f, 0x1c, 0xc3, 0x1c, 0x3e,
  0x5e, 0xf3, 0x18, 0xbe, 0x0b, 0xbd, 0xc0, 0x3e, 0xd0, 0x15, 0x16, 0xbf,
  0x1a, 0x33, 0x16, 0x3e, 0xc3, 0xe8, 0x1a, 0x3f, 0x5a, 0xfc, 0xff, 0xff,
  0x04, 0x00, 0x00, 0x00, 0x28, 0x00, 0x00, 0x00, 0xd7, 0x5a, 0x33, 0xbc,
  0x37, 0x63, 0x8f, 0xbd, 0xdc, 0xf2, 0x80, 0x3d, 0x70, 0x52, 0xb9, 0x3e,
  0x3f, 0x16, 0xb4, 0xbc, 0x67, 0xc4, 0x2a, 0xbe, 0x32, 0xf9, 0x09, 0x3f,
  0xe3, 0xf1, 0xfe, 0x3e, 0xb5, 0x19, 0x3c, 0x3e, 0x46, 0x37, 0x92, 0xbe,
  0x4c, 0xfc, 0xff, 0xff, 0x0c, 0x00, 0x14, 0x00, 0x04, 0x00, 0x08, 0x00,
  0x0c, 0x00, 0x10, 0x00, 0x0c, 0x00, 0x00, 0x00, 0x20, 0x00, 0x00, 0x00,
  0x14, 0x00, 0x00, 0x00, 0x08, 0x00, 0x00, 0x00, 0xf8, 0x02, 0x00, 0x00,
  0x01, 0x00, 0x00, 0x00, 0x09, 0x00, 0x00, 0x00, 0x01, 0x00, 0x00, 0x00,
  0x06, 0x00, 0x00, 0x00, 0x0b, 0x00, 0x00, 0x00, 0x2c, 0x01, 0x00, 0x00,
  0x28, 0x00, 0x00, 0x00, 0x04, 0x02, 0x00, 0x00, 0x9c, 0x02, 0x00, 0x00,
  0x54, 0x01, 0x00, 0x00, 0x3c, 0x02, 0x00, 0x00, 0x4c, 0x00, 0x00, 0x00,
  0xd8, 0x00, 0x00, 0x00, 0x7c, 0x01, 0x00, 0x00, 0xb0, 0x01, 0x00, 0x00,
  0x8c, 0x00, 0x00, 0x00, 0x92, 0xfd, 0xff, 0xff, 0x10, 0x00, 0x00, 0x00,
  0x0b, 0x00, 0x00, 0x00, 0x14, 0x00, 0x00, 0x00, 0x24, 0x00, 0x00, 0x00,
  0x02, 0x00, 0x00, 0x00, 0x01, 0x00, 0x00, 0x00, 0x14, 0x00, 0x00, 0x00,
  0x0c, 0x00, 0x00, 0x00, 0x64, 0x65, 0x6e, 0x73, 0x65, 0x5f, 0x31, 0x2f,
  0x52, 0x65, 0x6c, 0x75, 0x00, 0x00, 0x00, 0x00, 0xe4, 0xfc, 0xff, 0xff,
  0xca, 0xfd, 0xff, 0xff, 0x10, 0x00, 0x00, 0x00, 0x0a, 0x00, 0x00, 0x00,
  0x14, 0x00, 0x00, 0x00, 0x24, 0x00, 0x00, 0x00, 0x02, 0x00, 0x00, 0x00,
  0x01, 0x00, 0x00, 0x00, 0x21, 0x00, 0x00, 0x00, 0x07, 0x00, 0x00, 0x00,
  0x78, 0x5f, 0x69, 0x6e, 0x70, 0x75, 0x74, 0x00, 0x08, 0x00, 0x0c, 0x00,
  0x04, 0x00, 0x08, 0x00, 0x08, 0x00, 0x00, 0x00, 0x10, 0x00, 0x00, 0x00,
  0x04, 0x00, 0x00, 0x00, 0x01, 0x00, 0x00, 0x00, 0x00, 0x00, 0x7f, 0x43,
  0x01, 0x00, 0x00, 0x00, 0x00, 0x00, 0x00, 0x00, 0x1a, 0xfe, 0xff, 0xff,
  0x10, 0x00, 0x00, 0x00, 0x09, 0x00, 0x00, 0x00, 0x14, 0x00, 0x00, 0x00,
  0x2c, 0x00, 0x00, 0x00, 0x02, 0x00, 0x00, 0x00, 0x06, 0x00, 0x00, 0x00,
  0x0a, 0x00, 0x00, 0x00, 0x17, 0x00, 0x00, 0x00, 0x79, 0x5f, 0x70, 0x72,
  0x65, 0x64, 0x2f, 0x6b, 0x65, 0x72, 0x6e, 0x65, 0x6c, 0x2f, 0x74, 0x72,
  0x61, 0x6e, 0x73, 0x70, 0x6f, 0x73, 0x65, 0x00, 0x74, 0xfd, 0xff, 0xff,
  0x5a, 0xfe, 0xff, 0xff, 0x10, 0x00, 0x00, 0x00, 0x08, 0x00, 0x00, 0x00,
  0x14, 0x00, 0x00, 0x00, 0x24, 0x00, 0x00, 0x00, 0x02, 0x00, 0x00, 0x00,
  0x01, 0x00, 0x00, 0x00, 0x06, 0x00, 0x00, 0x00, 0x0e, 0x00, 0x00, 0x00,
  0x79, 0x5f, 0x70, 0x72, 0x65, 0x64, 0x2f, 0x42, 0x69, 0x61, 0x73, 0x41,
  0x64, 0x64, 0x00, 0x00, 0xac, 0xfd, 0xff, 0xff, 0x92, 0xfe, 0xff, 0xff,
  0x10, 0x00, 0x00, 0x00, 0x07, 0x00, 0x00, 0x00, 0x10, 0x00, 0x00, 0x00,
  0x24, 0x00, 0x00, 0x00, 0x01, 0x00, 0x00, 0x00, 0x14, 0x00, 0x00, 0x00,
  0x13, 0x00, 0x00, 0x00, 0x64, 0x65, 0x6e, 0x73, 0x65, 0x5f, 0x31, 0x2f,
  0x4d, 0x61, 0x74, 0x4d, 0x75, 0x6c, 0x5f, 0x62, 0x69, 0x61, 0x73, 0x00,
  0xe4, 0xfd, 0xff, 0xff, 0xca, 0xfe, 0xff, 0xff, 0x10, 0x00, 0x00, 0x00,
  0x06, 0x00, 0x00, 0x00, 0x14, 0x00, 0x00, 0x00, 0x24, 0x00, 0x00, 0x00,
  0x02, 0x00, 0x00, 0x00, 0x01, 0x00, 0x00, 0x00, 0x0a, 0x00, 0x00, 0x00,
  0x0c, 0x00, 0x00, 0x00, 0x64, 0x65, 0x6e, 0x73, 0x65, 0x5f, 0x32, 0x2f,
  0x52, 0x65, 0x6c, 0x75, 0x00, 0x00, 0x00, 0x00, 0x1c, 0xfe, 0xff, 0xff,
  0x02, 0xff, 0xff, 0xff, 0x10, 0x00, 0x00, 0x00, 0x05, 0x00, 0x00, 0x00,
  0x10, 0x00, 0x00, 0x00, 0x24, 0x00, 0x00, 0x00, 0x01, 0x00, 0x00, 0x00,
  0x06, 0x00, 0x00, 0x00, 0x12, 0x00, 0x00, 0x00, 0x79, 0x5f, 0x70, 0x72,
  0x65, 0x64, 0x2f, 0x4d, 0x61, 0x74, 0x4d, 0x75, 0x6c, 0x5f, 0x62, 0x69,
  0x61, 0x73, 0x00, 0x00, 0x54, 0xfe, 0xff, 0xff, 0x3a, 0xff, 0xff, 0xff,
  0x10, 0x00, 0x00, 0x00, 0x04, 0x00, 0x00, 0x00, 0x14, 0x00, 0x00, 0x00,
  0x24, 0x00, 0x00, 0x00, 0x02, 0x00, 0x00, 0x00, 0x01, 0x00, 0x00, 0x00,
  0x06, 0x00, 0x00, 0x00, 0x0e, 0x00, 0x00, 0x00, 0x79, 0x5f, 0x70, 0x72,
  0x65, 0x64, 0x2f, 0x53, 0x6f, 0x66, 0x74, 0x6d, 0x61, 0x78, 0x00, 0x00,
  0x8c, 0xfe, 0xff, 0xff, 0x72, 0xff, 0xff, 0xff, 0x10, 0x00, 0x00, 0x00,
  0x03, 0x00, 0x00, 0x00, 0x14, 0x00, 0x00, 0x00, 0x30, 0x00, 0x00, 0x00,
  0x02, 0x00, 0x00, 0x00, 0x14, 0x00, 0x00, 0x00, 0x21, 0x00, 0x00, 0x00,
  0x18, 0x00, 0x00, 0x00, 0x64, 0x65, 0x6e, 0x73, 0x65, 0x5f, 0x31, 0x2f,
  0x6b, 0x65, 0x72, 0x6e, 0x65, 0x6c, 0x2f, 0x74, 0x72, 0x61, 0x6e, 0x73,
  0x70, 0x6f, 0x73, 0x65, 0x00, 0x00, 0x00, 0x00, 0xd0, 0xfe, 0xff, 0xff,
  0xb6, 0xff, 0xff, 0xff, 0x10, 0x00, 0x00, 0x00, 0x02, 0x00, 0x00, 0x00,
  0x14, 0x00, 0x00, 0x00, 0x34, 0x00, 0x00, 0x00, 0x02, 0x00, 0x00, 0x00,
  0x0a, 0x00, 0x00, 0x00, 0x14, 0x00, 0x00, 0x00, 0x18, 0x00, 0x00, 0x00,
  0x64, 0x65, 0x6e, 0x73, 0x65, 0x5f, 0x32, 0x2f, 0x6b, 0x65, 0x72, 0x6e,
  0x65, 0x6c, 0x2f, 0x74, 0x72, 0x61, 0x6e, 0x73, 0x70, 0x6f, 0x73, 0x65,
  0x00, 0x00, 0x00, 0x00, 0x04, 0x00, 0x06, 0x00, 0x04, 0x00, 0x00, 0x00,
  0x00, 0x00, 0x0e, 0x00, 0x14, 0x00, 0x04, 0x00, 0x00, 0x00, 0x08, 0x00,
  0x0c, 0x00, 0x10, 0x00, 0x0e, 0x00, 0x00, 0x00, 0x10, 0x00, 0x00, 0x00,
  0x01, 0x00, 0x00, 0x00, 0x10, 0x00, 0x00, 0x00, 0x24, 0x00, 0x00, 0x00,
  0x01, 0x00, 0x00, 0x00, 0x0a, 0x00, 0x00, 0x00, 0x13, 0x00, 0x00, 0x00,
  0x64, 0x65, 0x6e, 0x73, 0x65, 0x5f, 0x32, 0x2f, 0x4d, 0x61, 0x74, 0x4d,
  0x75, 0x6c, 0x5f, 0x62, 0x69, 0x61, 0x73, 0x00, 0x60, 0xff, 0xff, 0xff,
  0x04, 0x00, 0x00, 0x00, 0xf0, 0x00, 0x00, 0x00, 0x9c, 0x00, 0x00, 0x00,
  0x5c, 0x00, 0x00, 0x00, 0x18, 0x00, 0x00, 0x00, 0x14, 0x00, 0x1c, 0x00,
  0x08, 0x00, 0x0c, 0x00, 0x10, 0x00, 0x07, 0x00, 0x14, 0x00, 0x00, 0x00,
  0x00, 0x00, 0x18, 0x00, 0x14, 0x00, 0x00, 0x00, 0x00, 0x00, 0x00, 0x09,
  0x01, 0x00, 0x00, 0x00, 0x10, 0x00, 0x00, 0x00, 0x14, 0x00, 0x00, 0x00,
  0x24, 0x00, 0x00, 0x00, 0x14, 0x00, 0x00, 0x00, 0x01, 0x00, 0x00, 0x00,
  0x07, 0x00, 0x00, 0x00, 0x01, 0x00, 0x00, 0x00, 0x09, 0x00, 0x00, 0x00,
  0x00, 0x00, 0x00, 0x00, 0x00, 0x00, 0x06, 0x00, 0x08, 0x00, 0x04, 0x00,
  0x06, 0x00, 0x00, 0x00, 0x00, 0x00, 0x80, 0x3f, 0x88, 0xff, 0xff, 0xff,
  0x00, 0x00, 0x00, 0x08, 0x10, 0x00, 0x00, 0x00, 0x1c, 0x00, 0x00, 0x00,
  0x28, 0x00, 0x00, 0x00, 0x1c, 0x00, 0x00, 0x00, 0x03, 0x00, 0x00, 0x00,
  0x04, 0x00, 0x00, 0x00, 0x0a, 0x00, 0x00, 0x00, 0x08, 0x00, 0x00, 0x00,
  0x01, 0x00, 0x00, 0x00, 0x07, 0x00, 0x00, 0x00, 0x00, 0x00, 0x00, 0x00,
  0x04, 0x00, 0x04, 0x00, 0x04, 0x00, 0x00, 0x00, 0xc4, 0xff, 0xff, 0xff,
  0x00, 0x00, 0x00, 0x08, 0x10, 0x00, 0x00, 0x00, 0x1c, 0x00, 0x00, 0x00,
  0x24, 0x00, 0x00, 0x00, 0x1c, 0x00, 0x00, 0x00, 0x03, 0x00, 0x00, 0x00,
  0x01, 0x00, 0x00, 0x00, 0x05, 0x00, 0x00, 0x00, 0x03, 0x00, 0x00, 0x00,
  0x01, 0x00, 0x00, 0x00, 0x04, 0x00, 0x00, 0x00, 0x00, 0x00, 0x00, 0x00,
  0x82, 0xff, 0xff, 0xff, 0x00, 0x00, 0x00, 0x01, 0x14, 0x00, 0x18, 0x00,
  0x00, 0x00, 0x08, 0x00, 0x0c, 0x00, 0x07, 0x00, 0x10, 0x00, 0x00, 0x00,
  0x00, 0x00, 0x14, 0x00, 0x14, 0x00, 0x00, 0x00, 0x00, 0x00, 0x00, 0x08,
  0x10, 0x00, 0x00, 0x00, 0x1c, 0x00, 0x00, 0x00, 0x24, 0x00, 0x00, 0x00,
  0x1c, 0x00, 0x00, 0x00, 0x03, 0x00, 0x00, 0x00, 0x06, 0x00, 0x00, 0x00,
  0x02, 0x00, 0x00, 0x00, 0x00, 0x00, 0x00, 0x00, 0x01, 0x00, 0x00, 0x00,
  0x01, 0x00, 0x00, 0x00, 0x00, 0x00, 0x00, 0x00, 0xd2, 0xff, 0xff, 0xff,
  0x00, 0x00, 0x00, 0x01, 0x02, 0x00, 0x00, 0x00, 0x10, 0x00, 0x00, 0x00,
  0x04, 0x00, 0x00, 0x00, 0xe6, 0xff, 0xff, 0xff, 0x00, 0x00, 0x00, 0x19,
  0xfa, 0xff, 0xff, 0xff, 0x00, 0x09, 0x06, 0x00, 0x06, 0x00, 0x05, 0x00,
  0x06, 0x00, 0x00, 0x00, 0x00, 0x09, 0x06, 0x00, 0x08, 0x00, 0x07, 0x00,
  0x06, 0x00, 0x00, 0x00, 0x00, 0x00, 0x00, 0x09
};
unsigned int trained_tflite_len = 5192;
