const unsigned char trained_tflite[] = {
  0x1c, 0x00, 0x00, 0x00, 0x54, 0x46, 0x4c, 0x33, 0x00, 0x00, 0x12, 0x00,
  0x1c, 0x00, 0x04, 0x00, 0x08, 0x00, 0x0c, 0x00, 0x10, 0x00, 0x14, 0x00,
  0x00, 0x00, 0x18, 0x00, 0x12, 0x00, 0x00, 0x00, 0x03, 0x00, 0x00, 0x00,
  0xa0, 0x0c, 0x00, 0x00, 0x10, 0x05, 0x00, 0x00, 0xf8, 0x04, 0x00, 0x00,
  0x3c, 0x00, 0x00, 0x00, 0x04, 0x00, 0x00, 0x00, 0x01, 0x00, 0x00, 0x00,
  0x0c, 0x00, 0x00, 0x00, 0x08, 0x00, 0x0c, 0x00, 0x04, 0x00, 0x08, 0x00,
  0x08, 0x00, 0x00, 0x00, 0x08, 0x00, 0x00, 0x00, 0x0c, 0x00, 0x00, 0x00,
  0x13, 0x00, 0x00, 0x00, 0x6d, 0x69, 0x6e, 0x5f, 0x72, 0x75, 0x6e, 0x74,
  0x69, 0x6d, 0x65, 0x5f, 0x76, 0x65, 0x72, 0x73, 0x69, 0x6f, 0x6e, 0x00,
  0x0d, 0x00, 0x00, 0x00, 0xb0, 0x04, 0x00, 0x00, 0x78, 0x04, 0x00, 0x00,
  0xa0, 0x03, 0x00, 0x00, 0x40, 0x03, 0x00, 0x00, 0x38, 0x03, 0x00, 0x00,
  0x30, 0x03, 0x00, 0x00, 0x10, 0x03, 0x00, 0x00, 0x08, 0x03, 0x00, 0x00,
  0x64, 0x00, 0x00, 0x00, 0x5c, 0x00, 0x00, 0x00, 0x54, 0x00, 0x00, 0x00,
  0x1c, 0x00, 0x00, 0x00, 0x04, 0x00, 0x00, 0x00, 0xea, 0xfa, 0xff, 0xff,
  0x04, 0x00, 0x00, 0x00, 0x05, 0x00, 0x00, 0x00, 0x31, 0x2e, 0x35, 0x2e,
  0x30, 0x00, 0x00, 0x00, 0xfe, 0xfa, 0xff, 0xff, 0x04, 0x00, 0x00, 0x00,
  0x28, 0x00, 0x00, 0x00, 0xa9, 0x01, 0x00, 0x00, 0xf4, 0xff, 0xff, 0xff,
  0xd2, 0xff, 0xff, 0xff, 0xde, 0x01, 0x00, 0x00, 0x12, 0x00, 0x00, 0x00,
  0xdc, 0xff, 0xff, 0xff, 0x9f, 0xff, 0xff, 0xff, 0xc7, 0xff, 0xff, 0xff,
  0xb4, 0xff, 0xff, 0xff, 0xdd, 0xff, 0xff, 0xff, 0x00, 0xfb, 0xff, 0xff,
  0x04, 0xfb, 0xff, 0xff, 0x3a, 0xfb, 0xff, 0xff, 0x04, 0x00, 0x00, 0x00,
  0x94, 0x02, 0x00, 0x00, 0xf4, 0xed, 0xfd, 0x20, 0xfd, 0x23, 0xd9, 0xe6,
  0x0c, 0x19, 0x3a, 0xf2, 0xcc, 0x3a, 0x29, 0x22, 0x30, 0xe7, 0x29, 0xf5,
  0x31, 0xbf, 0x36, 0xde, 0xde, 0xf2, 0xda, 0x25, 0x06, 0xdf, 0xdd, 0xbf,
  0x0b, 0x03, 0x0d, 0xfc, 0xe7, 0x06, 0x31, 0x20, 0x28, 0xce, 0x20, 0x19,
  0xe3, 0xf2, 0xcd, 0xdc, 0xe5, 0xe7, 0xcd, 0x25, 0x17, 0xfa, 0xdf, 0xcf,
  0xde, 0x0d, 0xdd, 0x0a, 0x18, 0xdf, 0xff, 0x29, 0x2f, 0xc7, 0x0e, 0x0f,
  0xdf, 0x24, 0x22, 0x0a, 0xdd, 0x06, 0xde, 0x1a, 0xf3, 0xfd, 0x28, 0x05,
  0x3f, 0x0c, 0xfa, 0x14, 0x10, 0xad, 0x62, 0x33, 0xd2, 0x51, 0xd6, 0x36,
  0x09, 0xfc, 0xf8, 0xa0, 0xb2, 0x4a, 0xc5, 0xcc, 0xd8, 0xdb, 0x0e, 0x03,
  0xfc, 0xc7, 0x27, 0x03, 0x49, 0xf7, 0xcf, 0xed, 0x1e, 0xf3, 0xe2, 0xf4,
  0xfc, 0x4b, 0x20, 0xd9, 0xe5, 0x2f, 0xe2, 0xef, 0x19, 0x04, 0xf7, 0x34,
  0x0b, 0xfb, 0x23, 0x08, 0xee, 0x3d, 0xc9, 0x3c, 0x12, 0x3b, 0xe9, 0xed,
  0x00, 0xcb, 0xfc, 0x0c, 0x4b, 0xfc, 0xf3, 0x35, 0x04, 0x19, 0xf1, 0xf1,
  0xde, 0x04, 0xfd, 0x24, 0x0d, 0x09, 0x36, 0x16, 0x16, 0xe9, 0xf9, 0xf6,
  0xd1, 0x3b, 0x04, 0x15, 0x0e, 0x20, 0x24, 0x1a, 0x25, 0x0c, 0x12, 0x0c,
  0xf3, 0x24, 0xff, 0x36, 0x0d, 0xf5, 0x10, 0x49, 0x4c, 0x23, 0xde, 0xfd,
  0x11, 0xe0, 0x1c, 0x23, 0x04, 0x49, 0x2b, 0x2b, 0x41, 0x29, 0xd0, 0x31,
  0xf1, 0xf6, 0xe5, 0x0e, 0x0c, 0xfe, 0xdb, 0x10, 0xc7, 0xcf, 0xd8, 0xd0,
  0x26, 0x0b, 0x00, 0x1f, 0x11, 0xe5, 0xf2, 0xef, 0x43, 0xdb, 0x1f, 0x17,
  0xf7, 0x07, 0x09, 0xee, 0x1f, 0xfa, 0xe0, 0xe0, 0x32, 0xc8, 0xdf, 0xc8,
  0x26, 0x00, 0xcb, 0x2c, 0xcc, 0x13, 0xe3, 0xf7, 0xe6, 0xe6, 0x04, 0x15,
  0xe0, 0xf8, 0xfb, 0xfa, 0xe4, 0xe7, 0x0c, 0x12, 0xef, 0x2c, 0x18, 0x0b,
  0x25, 0xb4, 0x2d, 0xc0, 0x1e, 0x22, 0x24, 0xd1, 0x2c, 0x10, 0xe6, 0x01,
  0x19, 0x04, 0xc1, 0x24, 0xf4, 0xde, 0xcc, 0xd9, 0x09, 0xe4, 0x2d, 0xd5,
  0xf8, 0xe8, 0xeb, 0xf4, 0xdd, 0x2c, 0xd0, 0x0b, 0x37, 0x02, 0xdc, 0x18,
  0xe9, 0x12, 0x0f, 0x1b, 0x36, 0xd1, 0x14, 0xfb, 0xee, 0x26, 0x17, 0x08,
  0xee, 0xc0, 0xf9, 0x0a, 0xd0, 0x0e, 0x21, 0x57, 0xd6, 0x01, 0xc0, 0x18,
  0x29, 0x45, 0xf0, 0x02, 0xf7, 0x61, 0x4b, 0x00, 0x1d, 0x14, 0xe5, 0xc3,
  0xe0, 0x01, 0x24, 0x09, 0x15, 0x25, 0x3a, 0xe4, 0xeb, 0x31, 0xfe, 0x2b,
  0x0f, 0xcf, 0xea, 0x2e, 0x13, 0xf0, 0x9b, 0xd5, 0x48, 0xb4, 0x0b, 0x40,
  0xf6, 0x2b, 0x1c, 0xd6, 0x4b, 0xfc, 0xd2, 0x25, 0x18, 0xf4, 0xe7, 0x02,
  0x23, 0x01, 0x20, 0x20, 0x39, 0xf6, 0x24, 0xf6, 0xd3, 0xce, 0x0e, 0x01,
  0x10, 0x33, 0x1f, 0x23, 0xea, 0xf3, 0x0a, 0x1b, 0xc6, 0xeb, 0x1c, 0xd6,
  0x23, 0xd6, 0x11, 0xe6, 0xff, 0x19, 0xf4, 0xeb, 0x15, 0xf8, 0x10, 0xed,
  0xf7, 0xfc, 0xdd, 0xef, 0x04, 0x34, 0x42, 0xe6, 0x22, 0x1a, 0xce, 0xeb,
  0x9a, 0xf4, 0x4a, 0xe7, 0xec, 0x1a, 0xdc, 0x0d, 0x15, 0xe4, 0x23, 0xf2,
  0xd5, 0xfc, 0x23, 0xe5, 0x25, 0x09, 0xf6, 0x2a, 0xfa, 0x09, 0x04, 0x27,
  0x38, 0x4c, 0xef, 0x17, 0x2b, 0xe7, 0xfe, 0x00, 0x1c, 0xaa, 0xf4, 0x21,
  0xf3, 0xd5, 0x38, 0x1f, 0x08, 0x1b, 0xe4, 0xc3, 0x3a, 0xfe, 0xf2, 0xcc,
  0x4d, 0x09, 0x17, 0x09, 0x1d, 0x29, 0x1b, 0xfe, 0xd4, 0x0a, 0xba, 0x00,
  0x0f, 0xe6, 0xf3, 0xea, 0x2c, 0x05, 0xfa, 0xff, 0xfc, 0x0e, 0x3a, 0x1e,
  0xee, 0x08, 0x0c, 0x2f, 0x1d, 0x0b, 0x2e, 0xcb, 0x45, 0xd8, 0x07, 0xf8,
  0x20, 0xe7, 0xd4, 0xd0, 0x0e, 0xcc, 0x11, 0x23, 0xec, 0x3f, 0xf4, 0x07,
  0x39, 0x05, 0x13, 0x07, 0xf9, 0x11, 0xe8, 0xee, 0xee, 0x1d, 0x14, 0xec,
  0xe1, 0xbe, 0xea, 0xc8, 0xc8, 0x15, 0x15, 0x03, 0xea, 0x02, 0xe9, 0xe7,
  0xe2, 0x09, 0xe5, 0xdb, 0xda, 0xd8, 0xd9, 0x12, 0x13, 0xfb, 0xe1, 0x16,
  0xfe, 0xb7, 0xe7, 0x18, 0x27, 0x0b, 0xe6, 0x05, 0x32, 0x4b, 0x01, 0xf9,
  0xe6, 0xe3, 0xf2, 0xc8, 0xc4, 0x39, 0xec, 0x09, 0x22, 0xc3, 0x24, 0x17,
  0x20, 0x01, 0xfa, 0xed, 0xf3, 0x04, 0xed, 0xed, 0x41, 0xf5, 0xfd, 0x1d,
  0xca, 0x2f, 0xeb, 0xd6, 0x2e, 0x24, 0x2f, 0x23, 0x0d, 0x15, 0x17, 0x48,
  0x67, 0x75, 0x62, 0x56, 0x33, 0xfb, 0x15, 0x02, 0xf6, 0x22, 0x5f, 0x41,
  0x31, 0x60, 0x17, 0x2c, 0xea, 0x1c, 0x34, 0x00, 0x17, 0x7f, 0x01, 0x05,
  0x57, 0x21, 0x3a, 0xfd, 0x48, 0x31, 0x51, 0x14, 0x46, 0x4a, 0x17, 0x34,
  0xf8, 0x0b, 0xe2, 0x3c, 0x77, 0x1f, 0x39, 0x0a, 0x05, 0x33, 0x21, 0x15,
  0xc8, 0x19, 0x09, 0x34, 0x48, 0x20, 0x03, 0x14, 0x1b, 0xf9, 0x34, 0xdb,
  0xcf, 0xcb, 0xd7, 0x47, 0xa8, 0xfd, 0xff, 0xff, 0xde, 0xfd, 0xff, 0xff,
  0x04, 0x00, 0x00, 0x00, 0x10, 0x00, 0x00, 0x00, 0x48, 0x01, 0x00, 0x00,
  0xfe, 0xfe, 0xff, 0xff, 0xce, 0xff, 0xff, 0xff, 0xaa, 0xff, 0xff, 0xff,
  0xc8, 0xfd, 0xff, 0xff, 0xcc, 0xfd, 0xff, 0xff, 0x02, 0xfe, 0xff, 0xff,
  0x04, 0x00, 0x00, 0x00, 0x50, 0x00, 0x00, 0x00, 0xef, 0xff, 0xff, 0xff,
  0xe8, 0xff, 0xff, 0xff, 0xab, 0x03, 0x00, 0x00, 0x21, 0xff, 0xff, 0xff,
  0x0a, 0x03, 0x00, 0x00, 0x16, 0x00, 0x00, 0x00, 0xe7, 0x02, 0x00, 0x00,
  0x4c, 0x05, 0x00, 0x00, 0x58, 0x00, 0x00, 0x00, 0x60, 0xff, 0xff, 0xff,
  0xbb, 0x01, 0x00, 0x00, 0x6e, 0xff, 0xff, 0xff, 0x38, 0x03, 0x00, 0x00,
  0x01, 0x00, 0x00, 0x00, 0xc1, 0xff, 0xff, 0xff, 0x03, 0x04, 0x00, 0x00,
  0x86, 0xff, 0xff, 0xff, 0x7a, 0xff, 0xff, 0xff, 0x6e, 0x00, 0x00, 0x00,
  0xb3, 0xff, 0xff, 0xff, 0x5e, 0xfe, 0xff, 0xff, 0x04, 0x00, 0x00, 0x00,
  0xc8, 0x00, 0x00, 0x00, 0xef, 0xfd, 0x35, 0xfc, 0x44, 0xec, 0xdd, 0x63,
  0xcc, 0xb8, 0xe5, 0xd0, 0x35, 0x32, 0xcc, 0x23, 0xcb, 0xf6, 0x08, 0x03,
  0xe1, 0x06, 0xe9, 0x11, 0x08, 0x00, 0x1e, 0xec, 0xf0, 0xdc, 0x05, 0xdd,
  0xf3, 0xf1, 0xdb, 0xd9, 0xed, 0x1c, 0x12, 0xd8, 0xe7, 0x20, 0x0b, 0xeb,
  0x1f, 0x0b, 0x0d, 0xf0, 0x2c, 0x29, 0xe7, 0xf5, 0x0a, 0xcd, 0x1a, 0xe3,
  0x05, 0x36, 0xe0, 0xee, 0xc4, 0xf4, 0x24, 0xe3, 0x2f, 0xfe, 0x60, 0x7f,
  0x22, 0xdc, 0x39, 0x0b, 0x33, 0xd5, 0xf2, 0x52, 0x08, 0x0a, 0xef, 0xc7,
  0x1a, 0x11, 0xef, 0xd1, 0xfe, 0x36, 0x24, 0xcf, 0xd9, 0x40, 0x23, 0xcf,
  0xff, 0x1f, 0x07, 0x10, 0xfc, 0xe4, 0x4b, 0x1e, 0x15, 0x22, 0xd7, 0x03,
  0xe1, 0xef, 0x04, 0xf3, 0x26, 0xcf, 0xcc, 0x26, 0xdb, 0x11, 0xe3, 0x1f,
  0xdb, 0xff, 0xcf, 0x1a, 0x1d, 0xf1, 0x19, 0x25, 0x3f, 0xf0, 0xe1, 0xf5,
  0x11, 0x0d, 0xdb, 0x13, 0xe5, 0x07, 0xe6, 0x0b, 0xff, 0xe8, 0x28, 0xed,
  0xe2, 0x25, 0xde, 0xd5, 0xfa, 0xee, 0xf8, 0xd8, 0x21, 0x14, 0x1e, 0x22,
  0xf5, 0xf9, 0xec, 0xea, 0xe6, 0x0d, 0xdc, 0x0b, 0xe8, 0x19, 0x02, 0x0d,
  0x49, 0xf7, 0x23, 0x95, 0xed, 0xd6, 0x23, 0x1a, 0x2d, 0x32, 0xf1, 0x16,
  0xcd, 0x13, 0xff, 0xff, 0xee, 0x16, 0x40, 0x2e, 0xd8, 0x2e, 0x0a, 0xf9,
  0x49, 0xfe, 0xe1, 0x21, 0xd2, 0xf1, 0xeb, 0x13, 0x38, 0x3a, 0x0b, 0x2d,
  0x32, 0xff, 0xff, 0xff, 0x04, 0x00, 0x00, 0x00, 0x28, 0x00, 0x00, 0x00,
  0x2a, 0xfa, 0xf5, 0x5c, 0xc9, 0xec, 0xa6, 0xff, 0xf8, 0xf1, 0x1d, 0xfa,
  0x1f, 0xe1, 0xf7, 0x0f, 0x2b, 0xdf, 0x28, 0x26, 0x81, 0xcb, 0xc8, 0xfa,
  0x30, 0x19, 0xf5, 0xfa, 0x20, 0xcd, 0xa2, 0x31, 0x3a, 0xe0, 0x13, 0xff,
  0x06, 0xcf, 0xbc, 0x51, 0x34, 0xff, 0xff, 0xff, 0x0f, 0x00, 0x00, 0x00,
  0x54, 0x4f, 0x43, 0x4f, 0x20, 0x43, 0x6f, 0x6e, 0x76, 0x65, 0x72, 0x74,
  0x65, 0x64, 0x2e, 0x00, 0x01, 0x00, 0x00, 0x00, 0x04, 0x00, 0x00, 0x00,
  0x7c, 0xf9, 0xff, 0xff, 0x94, 0x01, 0x00, 0x00, 0x88, 0x01, 0x00, 0x00,
  0x7c, 0x01, 0x00, 0x00, 0x04, 0x00, 0x00, 0x00, 0x06, 0x00, 0x00, 0x00,
  0x50, 0x01, 0x00, 0x00, 0x04, 0x01, 0x00, 0x00, 0xbc, 0x00, 0x00, 0x00,
  0x74, 0x00, 0x00, 0x00, 0x38, 0x00, 0x00, 0x00, 0x04, 0x00, 0x00, 0x00,
  0xd2, 0xfe, 0xff, 0xff, 0x03, 0x00, 0x00, 0x00, 0x10, 0x00, 0x00, 0x00,
  0x04, 0x00, 0x00, 0x00, 0x01, 0x00, 0x00, 0x00, 0x0c, 0x00, 0x00, 0x00,
  0x01, 0x00, 0x00, 0x00, 0x00, 0x00, 0x00, 0x00, 0x00, 0x00, 0x0e, 0x00,
  0x1a, 0x00, 0x08, 0x00, 0x0c, 0x00, 0x10, 0x00, 0x07, 0x00, 0x14, 0x00,
  0x0e, 0x00, 0x00, 0x00, 0x00, 0x00, 0x00, 0x09, 0x01, 0x00, 0x00, 0x00,
  0x24, 0x00, 0x00, 0x00, 0x18, 0x00, 0x00, 0x00, 0x0c, 0x00, 0x00, 0x00,
  0x00, 0x00, 0x06, 0x00, 0x08, 0x00, 0x04, 0x00, 0x06, 0x00, 0x00, 0x00,
  0x00, 0x00, 0x80, 0x3f, 0x01, 0x00, 0x00, 0x00, 0x00, 0x00, 0x00, 0x00,
  0x01, 0x00, 0x00, 0x00, 0x07, 0x00, 0x00, 0x00, 0xca, 0xff, 0xff, 0xff,
  0x00, 0x00, 0x00, 0x08, 0x1c, 0x00, 0x00, 0x00, 0x10, 0x00, 0x00, 0x00,
  0x08, 0x00, 0x00, 0x00, 0x04, 0x00, 0x04, 0x00, 0x04, 0x00, 0x00, 0x00,
  0x01, 0x00, 0x00, 0x00, 0x07, 0x00, 0x00, 0x00, 0x03, 0x00, 0x00, 0x00,
  0x06, 0x00, 0x00, 0x00, 0x08, 0x00, 0x00, 0x00, 0x09, 0x00, 0x00, 0x00,
  0x00, 0x00, 0x0e, 0x00, 0x14, 0x00, 0x00, 0x00, 0x08, 0x00, 0x0c, 0x00,
  0x07, 0x00, 0x10, 0x00, 0x0e, 0x00, 0x00, 0x00, 0x00, 0x00, 0x00, 0x08,
  0x1c, 0x00, 0x00, 0x00, 0x10, 0x00, 0x00, 0x00, 0x04, 0x00, 0x00, 0x00,
  0xba, 0xff, 0xff, 0xff, 0x00, 0x00, 0x00, 0x01, 0x01, 0x00, 0x00, 0x00,
  0x06, 0x00, 0x00, 0x00, 0x03, 0x00, 0x00, 0x00, 0x03, 0x00, 0x00, 0x00,
  0x04, 0x00, 0x00, 0x00, 0x05, 0x00, 0x00, 0x00, 0x00, 0x00, 0x0e, 0x00,
  0x16, 0x00, 0x00, 0x00, 0x08, 0x00, 0x0c, 0x00, 0x07, 0x00, 0x10, 0x00,
  0x0e, 0x00, 0x00, 0x00, 0x00, 0x00, 0x00, 0x08, 0x24, 0x00, 0x00, 0x00,
  0x18, 0x00, 0x00, 0x00, 0x0c, 0x00, 0x00, 0x00, 0x00, 0x00, 0x06, 0x00,
  0x08, 0x00, 0x07, 0x00, 0x06, 0x00, 0x00, 0x00, 0x00, 0x00, 0x00, 0x01,
  0x01, 0x00, 0x00, 0x00, 0x03, 0x00, 0x00, 0x00, 0x03, 0x00, 0x00, 0x00,
  0x0a, 0x00, 0x00, 0x00, 0x01, 0x00, 0x00, 0x00, 0x02, 0x00, 0x00, 0x00,
  0x00, 0x00, 0x0a, 0x00, 0x10, 0x00, 0x04, 0x00, 0x08, 0x00, 0x0c, 0x00,
  0x0a, 0x00, 0x00, 0x00, 0x02, 0x00, 0x00, 0x00, 0x10, 0x00, 0x00, 0x00,
  0x04, 0x00, 0x00, 0x00, 0x01, 0x00, 0x00, 0x00, 0x0a, 0x00, 0x00, 0x00,
  0x01, 0x00, 0x00, 0x00, 0x0b, 0x00, 0x00, 0x00, 0x01, 0x00, 0x00, 0x00,
  0x0c, 0x00, 0x00, 0x00, 0x01, 0x00, 0x00, 0x00, 0x0b, 0x00, 0x00, 0x00,
  0x0d, 0x00, 0x00, 0x00, 0x80, 0x05, 0x00, 0x00, 0xcc, 0x04, 0x00, 0x00,
  0x64, 0x04, 0x00, 0x00, 0xe8, 0x03, 0x00, 0x00, 0x4c, 0x03, 0x00, 0x00,
  0xe0, 0x02, 0x00, 0x00, 0x64, 0x02, 0x00, 0x00, 0xe0, 0x01, 0x00, 0x00,
  0x44, 0x01, 0x00, 0x00, 0xd8, 0x00, 0x00, 0x00, 0x64, 0x00, 0x00, 0x00,
  0x3c, 0x00, 0x00, 0x00, 0x04, 0x00, 0x00, 0x00, 0xd8, 0xff, 0xff, 0xff,
  0x18, 0x00, 0x00, 0x00, 0x04, 0x00, 0x00, 0x00, 0x08, 0x00, 0x00, 0x00,
  0x49, 0x64, 0x65, 0x6e, 0x74, 0x69, 0x74, 0x79, 0x00, 0x00, 0x00, 0x00,
  0x02, 0x00, 0x00, 0x00, 0x01, 0x00, 0x00, 0x00, 0x04, 0x00, 0x00, 0x00,
  0x0c, 0x00, 0x0c, 0x00, 0x04, 0x00, 0x00, 0x00, 0x00, 0x00, 0x08, 0x00,
  0x0c, 0x00, 0x00, 0x00, 0x14, 0x00, 0x00, 0x00, 0x04, 0x00, 0x00, 0x00,
  0x07, 0x00, 0x00, 0x00, 0x78, 0x5f, 0x69, 0x6e, 0x70, 0x75, 0x74, 0x00,
  0x02, 0x00, 0x00, 0x00, 0x01, 0x00, 0x00, 0x00, 0x21, 0x00, 0x00, 0x00,
  0x1a, 0xfb, 0xff, 0xff, 0x00, 0x00, 0x00, 0x09, 0x5c, 0x00, 0x00, 0x00,
  0x04, 0x00, 0x00, 0x00, 0x40, 0x00, 0x00, 0x00, 0x04, 0x00, 0x00, 0x00,
  0xbc, 0xfb, 0xff, 0xff, 0x2c, 0x00, 0x00, 0x00, 0x20, 0x00, 0x00, 0x00,
  0x14, 0x00, 0x00, 0x00, 0x04, 0x00, 0x00, 0x00, 0x01, 0x00, 0x00, 0x00,
  0x80, 0xff, 0xff, 0xff, 0xff, 0xff, 0xff, 0xff, 0x01, 0x00, 0x00, 0x00,
  0x59, 0xd8, 0xe9, 0x3d, 0x01, 0x00, 0x00, 0x00, 0x81, 0xee, 0xe8, 0x41,
  0x01, 0x00, 0x00, 0x00, 0x00, 0x00, 0x00, 0x00, 0x0c, 0x00, 0x00, 0x00,
  0x78, 0x5f, 0x69, 0x6e, 0x70, 0x75, 0x74, 0x5f, 0x69, 0x6e, 0x74, 0x38,
  0x00, 0x00, 0x00, 0x00, 0x02, 0x00, 0x00, 0x00, 0x01, 0x00, 0x00, 0x00,
  0x21, 0x00, 0x00, 0x00, 0x8a, 0xfb, 0xff, 0xff, 0x00, 0x00, 0x00, 0x02,
  0x58, 0x00, 0x00, 0x00, 0x06, 0x00, 0x00, 0x00, 0x2c, 0x00, 0x00, 0x00,
  0x04, 0x00, 0x00, 0x00, 0x7c, 0xfb, 0xff, 0xff, 0x18, 0x00, 0x00, 0x00,
  0x04, 0x00, 0x00, 0x00, 0x01, 0x00, 0x00, 0x00, 0x00, 0x00, 0x00, 0x00,
  0x00, 0x00, 0x00, 0x00, 0x00, 0x00, 0x00, 0x00, 0x01, 0x00, 0x00, 0x00,
  0xe5, 0xab, 0xf2, 0x3a, 0x1d, 0x00, 0x00, 0x00, 0x73, 0x65, 0x71, 0x75,
  0x65, 0x6e, 0x74, 0x69, 0x61, 0x6c, 0x2f, 0x79, 0x5f, 0x70, 0x72, 0x65,
  0x64, 0x2f, 0x4d, 0x61, 0x74, 0x4d, 0x75, 0x6c, 0x5f, 0x62, 0x69, 0x61,
  0x73, 0x00, 0x00, 0x00, 0x01, 0x00, 0x00, 0x00, 0x04, 0x00, 0x00, 0x00,
  0xf2, 0xfb, 0xff, 0xff, 0x00, 0x00, 0x00, 0x09, 0x84, 0x00, 0x00, 0x00,
  0x01, 0x00, 0x00, 0x00, 0x44, 0x00, 0x00, 0x00, 0x04, 0x00, 0x00, 0x00,
  0x94, 0xfc, 0xff, 0xff, 0x30, 0x00, 0x00, 0x00, 0x24, 0x00, 0x00, 0x00,
  0x18, 0x00, 0x00, 0x00, 0x04, 0x00, 0x00, 0x00, 0x01, 0x00, 0x00, 0x00,
  0x00, 0x00, 0x00, 0x00, 0x00, 0x00, 0x00, 0x00, 0x00, 0x00, 0x00, 0x00,
  0x01, 0x00, 0x00, 0x00, 0xcb, 0x54, 0x2f, 0x3c, 0x01, 0x00, 0x00, 0x00,
  0x2a, 0xe4, 0x7c, 0x3f, 0x01, 0x00, 0x00, 0x00, 0x21, 0xf6, 0xad, 0xbf,
  0x31, 0x00, 0x00, 0x00, 0x73, 0x65, 0x71, 0x75, 0x65, 0x6e, 0x74, 0x69,
  0x61, 0x6c, 0x2f, 0x79, 0x5f, 0x70, 0x72, 0x65, 0x64, 0x2f, 0x4d, 0x61,
  0x74, 0x4d, 0x75, 0x6c, 0x2f, 0x52, 0x65, 0x61, 0x64, 0x56, 0x61, 0x72,
  0x69, 0x61, 0x62, 0x6c, 0x65, 0x4f, 0x70, 0x2f, 0x74, 0x72, 0x61, 0x6e,
  0x73, 0x70, 0x6f, 0x73, 0x65, 0x00, 0x00, 0x00, 0x02, 0x00, 0x00, 0x00,
  0x04, 0x00, 0x00, 0x00, 0x0a, 0x00, 0x00, 0x00, 0x8a, 0xfc, 0xff, 0xff,
  0x00, 0x00, 0x00, 0x09, 0x6c, 0x00, 0x00, 0x00, 0x05, 0x00, 0x00, 0x00,
  0x44, 0x00, 0x00, 0x00, 0x04, 0x00, 0x00, 0x00, 0x2c, 0xfd, 0xff, 0xff,
  0x30, 0x00, 0x00, 0x00, 0x24, 0x00, 0x00, 0x00, 0x18, 0x00, 0x00, 0x00,
  0x04, 0x00, 0x00, 0x00, 0x01, 0x00, 0x00, 0x00, 0x0c, 0x00, 0x00, 0x00,
  0x00, 0x00, 0x00, 0x00, 0x00, 0x00, 0x00, 0x00, 0x01, 0x00, 0x00, 0x00,
  0x06, 0xce, 0x71, 0x3e, 0x01, 0x00, 0x00, 0x00, 0x2a, 0xc9, 0xd8, 0x41,
  0x01, 0x00, 0x00, 0x00, 0xa3, 0x77, 0x04, 0xc2, 0x19, 0x00, 0x00, 0x00,
  0x73, 0x65, 0x71, 0x75, 0x65, 0x6e, 0x74, 0x69, 0x61, 0x6c, 0x2f, 0x79,
  0x5f, 0x70, 0x72, 0x65, 0x64, 0x2f, 0x42, 0x69, 0x61, 0x73, 0x41, 0x64,
  0x64, 0x00, 0x00, 0x00, 0x02, 0x00, 0x00, 0x00, 0x01, 0x00, 0x00, 0x00,
  0x04, 0x00, 0x00, 0x00, 0x0a, 0xfd, 0xff, 0xff, 0x00, 0x00, 0x00, 0x09,
  0x64, 0x00, 0x00, 0x00, 0x0a, 0x00, 0x00, 0x00, 0x40, 0x00, 0x00, 0x00,
  0x04, 0x00, 0x00, 0x00, 0xac, 0xfd, 0xff, 0xff, 0x2c, 0x00, 0x00, 0x00,
  0x20, 0x00, 0x00, 0x00, 0x14, 0x00, 0x00, 0x00, 0x04, 0x00, 0x00, 0x00,
  0x01, 0x00, 0x00, 0x00, 0x80, 0xff, 0xff, 0xff, 0xff, 0xff, 0xff, 0xff,
  0x01, 0x00, 0x00, 0x00, 0x5a, 0x29, 0x31, 0x3e, 0x01, 0x00, 0x00, 0x00,
  0x31, 0x78, 0x30, 0x42, 0x01, 0x00, 0x00, 0x00, 0x00, 0x00, 0x00, 0x00,
  0x17, 0x00, 0x00, 0x00, 0x73, 0x65, 0x71, 0x75, 0x65, 0x6e, 0x74, 0x69,
  0x61, 0x6c, 0x2f, 0x64, 0x65, 0x6e, 0x73, 0x65, 0x5f, 0x31, 0x2f, 0x52,
  0x65, 0x6c, 0x75, 0x00, 0x02, 0x00, 0x00, 0x00, 0x01, 0x00, 0x00, 0x00,
  0x0a, 0x00, 0x00, 0x00, 0x82, 0xfd, 0xff, 0xff, 0x00, 0x00, 0x00, 0x02,
  0x58, 0x00, 0x00, 0x00, 0x0b, 0x00, 0x00, 0x00, 0x2c, 0x00, 0x00, 0x00,
  0x04, 0x00, 0x00, 0x00, 0x74, 0xfd, 0xff, 0xff, 0x18, 0x00, 0x00, 0x00,
  0x04, 0x00, 0x00, 0x00, 0x01, 0x00, 0x00, 0x00, 0x00, 0x00, 0x00, 0x00,
  0x00, 0x00, 0x00, 0x00, 0x00, 0x00, 0x00, 0x00, 0x01, 0x00, 0x00, 0x00,
  0xe8, 0x27, 0x98, 0x3a, 0x1e, 0x00, 0x00, 0x00, 0x73, 0x65, 0x71, 0x75,
  0x65, 0x6e, 0x74, 0x69, 0x61, 0x6c, 0x2f, 0x64, 0x65, 0x6e, 0x73, 0x65,
  0x5f, 0x31, 0x2f, 0x4d, 0x61, 0x74, 0x4d, 0x75, 0x6c, 0x5f, 0x62, 0x69,
  0x61, 0x73, 0x00, 0x00, 0x01, 0x00, 0x00, 0x00, 0x0a, 0x00, 0x00, 0x00,
  0xea, 0xfd, 0xff, 0xff, 0x00, 0x00, 0x00, 0x09, 0x84, 0x00, 0x00, 0x00,
  0x02, 0x00, 0x00, 0x00, 0x44, 0x00, 0x00, 0x00, 0x04, 0x00, 0x00, 0x00,
  0x8c, 0xfe, 0xff, 0xff, 0x30, 0x00, 0x00, 0x00, 0x24, 0x00, 0x00, 0x00,
  0x18, 0x00, 0x00, 0x00, 0x04, 0x00, 0x00, 0x00, 0x01, 0x00, 0x00, 0x00,
  0x00, 0x00, 0x00, 0x00, 0x00, 0x00, 0x00, 0x00, 0x00, 0x00, 0x00, 0x00,
  0x01, 0x00, 0x00, 0x00, 0x1f, 0xcc, 0x1c, 0x3c, 0x01, 0x00, 0x00, 0x00,
  0x87, 0x92, 0x9b, 0x3f, 0x01, 0x00, 0x00, 0x00, 0xab, 0x8e, 0x82, 0xbf,
  0x32, 0x00, 0x00, 0x00, 0x73, 0x65, 0x71, 0x75, 0x65, 0x6e, 0x74, 0x69,
  0x61, 0x6c, 0x2f, 0x64, 0x65, 0x6e, 0x73, 0x65, 0x5f, 0x31, 0x2f, 0x4d,
  0x61, 0x74, 0x4d, 0x75, 0x6c, 0x2f, 0x52, 0x65, 0x61, 0x64, 0x56, 0x61,
  0x72, 0x69, 0x61, 0x62, 0x6c, 0x65, 0x4f, 0x70, 0x2f, 0x74, 0x72, 0x61,
  0x6e, 0x73, 0x70, 0x6f, 0x73, 0x65, 0x00, 0x00, 0x02, 0x00, 0x00, 0x00,
  0x0a, 0x00, 0x00, 0x00, 0x14, 0x00, 0x00, 0x00, 0x82, 0xfe, 0xff, 0xff,
  0x00, 0x00, 0x00, 0x09, 0x64, 0x00, 0x00, 0x00, 0x07, 0x00, 0x00, 0x00,
  0x40, 0x00, 0x00, 0x00, 0x04, 0x00, 0x00, 0x00, 0x24, 0xff, 0xff, 0xff,
  0x2c, 0x00, 0x00, 0x00, 0x20, 0x00, 0x00, 0x00, 0x14, 0x00, 0x00, 0x00,
  0x04, 0x00, 0x00, 0x00, 0x01, 0x00, 0x00, 0x00, 0x80, 0xff, 0xff, 0xff,
  0xff, 0xff, 0xff, 0xff, 0x01, 0x00, 0x00, 0x00, 0x07, 0x6c, 0xf8, 0x3d,
  0x01, 0x00, 0x00, 0x00, 0x9b, 0x73, 0xf7, 0x41, 0x01, 0x00, 0x00, 0x00,
  0x00, 0x00, 0x00, 0x00, 0x15, 0x00, 0x00, 0x00, 0x73, 0x65, 0x71, 0x75,
  0x65, 0x6e, 0x74, 0x69, 0x61, 0x6c, 0x2f, 0x64, 0x65, 0x6e, 0x73, 0x65,
  0x2f, 0x52, 0x65, 0x6c, 0x75, 0x00, 0x00, 0x00, 0x02, 0x00, 0x00, 0x00,
  0x01, 0x00, 0x00, 0x00, 0x14, 0x00, 0x00, 0x00, 0xfa, 0xfe, 0xff, 0xff,
  0x00, 0x00, 0x00, 0x02, 0x54, 0x00, 0x00, 0x00, 0x03, 0x00, 0x00, 0x00,
  0x28, 0x00, 0x00, 0x00, 0x04, 0x00, 0x00, 0x00, 0xec, 0xfe, 0xff, 0xff,
  0x14, 0x00, 0x00, 0x00, 0x04, 0x00, 0x00, 0x00, 0x01, 0x00, 0x00, 0x00,
  0x00, 0x00, 0x00, 0x00, 0x00, 0x00, 0x00, 0x00, 0x01, 0x00, 0x00, 0x00,
  0x71, 0x4e, 0x32, 0x3a, 0x1c, 0x00, 0x00, 0x00, 0x73, 0x65, 0x71, 0x75,
  0x65, 0x6e, 0x74, 0x69, 0x61, 0x6c, 0x2f, 0x64, 0x65, 0x6e, 0x73, 0x65,
  0x2f, 0x4d, 0x61, 0x74, 0x4d, 0x75, 0x6c, 0x5f, 0x62, 0x69, 0x61, 0x73,
  0x00, 0x00, 0x00, 0x00, 0x01, 0x00, 0x00, 0x00, 0x14, 0x00, 0x00, 0x00,
  0x5e, 0xff, 0xff, 0xff, 0x00, 0x00, 0x00, 0x09, 0x8c, 0x00, 0x00, 0x00,
  0x08, 0x00, 0x00, 0x00, 0x4c, 0x00, 0x00, 0x00, 0x10, 0x00, 0x00, 0x00,
  0x0c, 0x00, 0x14, 0x00, 0x04, 0x00, 0x08, 0x00, 0x0c, 0x00, 0x10, 0x00,
  0x0c, 0x00, 0x00, 0x00, 0x2c, 0x00, 0x00, 0x00, 0x20, 0x00, 0x00, 0x00,
  0x14, 0x00, 0x00, 0x00, 0x04, 0x00, 0x00, 0x00, 0x01, 0x00, 0x00, 0x00,
  0x00, 0x00, 0x00, 0x00, 0x00, 0x00, 0x00, 0x00, 0x01, 0x00, 0x00, 0x00,
  0x10, 0x33, 0xc3, 0x3b, 0x01, 0x00, 0x00, 0x00, 0xaa, 0xac, 0x41, 0x3f,
  0x01, 0x00, 0x00, 0x00, 0x05, 0x7b, 0x1b, 0xbf, 0x30, 0x00, 0x00, 0x00,
  0x73, 0x65, 0x71, 0x75, 0x65, 0x6e, 0x74, 0x69, 0x61, 0x6c, 0x2f, 0x64,
  0x65, 0x6e, 0x73, 0x65, 0x2f, 0x4d, 0x61, 0x74, 0x4d, 0x75, 0x6c, 0x2f,
  0x52, 0x65, 0x61, 0x64, 0x56, 0x61, 0x72, 0x69, 0x61, 0x62, 0x6c, 0x65,
  0x4f, 0x70, 0x2f, 0x74, 0x72, 0x61, 0x6e, 0x73, 0x70, 0x6f, 0x73, 0x65,
  0x00, 0x00, 0x00, 0x00, 0x02, 0x00, 0x00, 0x00, 0x14, 0x00, 0x00, 0x00,
  0x21, 0x00, 0x00, 0x00, 0x00, 0x00, 0x0e, 0x00, 0x18, 0x00, 0x08, 0x00,
  0x07, 0x00, 0x0c, 0x00, 0x10, 0x00, 0x14, 0x00, 0x0e, 0x00, 0x00, 0x00,
  0x00, 0x00, 0x00, 0x09, 0x54, 0x00, 0x00, 0x00, 0x09, 0x00, 0x00, 0x00,
  0x38, 0x00, 0x00, 0x00, 0x10, 0x00, 0x00, 0x00, 0x0c, 0x00, 0x0c, 0x00,
  0x00, 0x00, 0x00, 0x00, 0x04, 0x00, 0x08, 0x00, 0x0c, 0x00, 0x00, 0x00,
  0x18, 0x00, 0x00, 0x00, 0x04, 0x00, 0x00, 0x00, 0x01, 0x00, 0x00, 0x00,
  0x80, 0xff, 0xff, 0xff, 0xff, 0xff, 0xff, 0xff, 0x00, 0x00, 0x00, 0x00,
  0x01, 0x00, 0x00, 0x00, 0x00, 0x00, 0x80, 0x3b, 0x0d, 0x00, 0x00, 0x00,
  0x49, 0x64, 0x65, 0x6e, 0x74, 0x69, 0x74, 0x79, 0x5f, 0x69, 0x6e, 0x74,
  0x38, 0x00, 0x00, 0x00, 0x02, 0x00, 0x00, 0x00, 0x01, 0x00, 0x00, 0x00,
  0x04, 0x00, 0x00, 0x00, 0x04, 0x00, 0x00, 0x00, 0x4c, 0x00, 0x00, 0x00,
  0x30, 0x00, 0x00, 0x00, 0x1c, 0x00, 0x00, 0x00, 0x04, 0x00, 0x00, 0x00,
  0xe6, 0xff, 0xff, 0xff, 0x00, 0x00, 0x00, 0x06, 0x02, 0x00, 0x00, 0x00,
  0x00, 0x00, 0x06, 0x00, 0x06, 0x00, 0x05, 0x00, 0x06, 0x00, 0x00, 0x00,
  0x00, 0x72, 0x0a, 0x00, 0x0e, 0x00, 0x07, 0x00, 0x00, 0x00, 0x08, 0x00,
  0x0a, 0x00, 0x00, 0x00, 0x00, 0x00, 0x00, 0x19, 0x02, 0x00, 0x00, 0x00,
  0x00, 0x00, 0x0a, 0x00, 0x0c, 0x00, 0x07, 0x00, 0x00, 0x00, 0x08, 0x00,
  0x0a, 0x00, 0x00, 0x00, 0x00, 0x00, 0x00, 0x09, 0x04, 0x00, 0x00, 0x00
};
unsigned int trained_tflite_len = 3360;
